{
  "version": "1.0",
  "truncation": null,
  "padding": null,
  "added_tokens": [
    {
      "id": 0,
      "content": "[PAD]",
      "single_word": false,
      "lstrip": true,
      "rstrip": true,
      "normalized": true,
      "special": false
    },
    {
      "id": 1,
      "content": "[CLS]",
      "single_word": false,
      "lstrip": true,
      "rstrip": true,
      "normalized": true,
      "special": false
    },
    {
      "id": 2,
      "content": "[SEP]",
      "single_word": false,
      "lstrip": true,
      "rstrip": true,
      "normalized": true,
      "special": false
    },
    {
      "id": 3,
      "content": "<mask>",
      "single_word": false,
      "lstrip": true,
      "rstrip": true,
      "normalized": true,
      "special": false
    },
    {
      "id": 4,
      "content": "<sos>",
      "single_word": false,
      "lstrip": true,
      "rstrip": true,
      "normalized": true,
      "special": false
    },
    {
      "id": 5,
      "content": "<eos>",
      "single_word": false,
      "lstrip": true,
      "rstrip": true,
      "normalized": true,
      "special": false
    },
    {
      "id": 6,
      "content": "<unk>",
      "single_word": false,
      "lstrip": true,
      "rstrip": true,
      "normalized": true,
      "special": false
    }
  ],
  "normalizer": {
    "type": "NFKC"
  },
  "pre_tokenizer": {
    "type": "Metaspace",
    "replacement": "▁",
    "add_prefix_space": true
  },
  "post_processor": null,
  "decoder": {
    "type": "Metaspace",
    "replacement": "▁",
    "add_prefix_space": true
  },
  "model": {
    "type": "BPE",
    "dropout": null,
    "unk_token": "<unk>",
    "continuing_subword_prefix": null,
    "end_of_word_suffix": null,
    "fuse_unk": false,
    "byte_fallback": false,
    "vocab": {
      "[PAD]": 0,
      "[CLS]": 1,
      "[SEP]": 2,
      "<mask>": 3,
      "<sos>": 4,
      "<eos>": 5,
      "<unk>": 6,
      "!": 7,
      "\"": 8,
      "#": 9,
      "$": 10,
      "%": 11,
      "&": 12,
      "'": 13,
      "(": 14,
      ")": 15,
      "*": 16,
      "+": 17,
      ",": 18,
      "-": 19,
      ".": 20,
      "/": 21,
      "0": 22,
      "1": 23,
      "2": 24,
      "3": 25,
      "4": 26,
      "5": 27,
      "6": 28,
      "7": 29,
      "8": 30,
      "9": 31,
      ":": 32,
      ";": 33,
      "<": 34,
      "=": 35,
      ">": 36,
      "?": 37,
      "@": 38,
      "M": 39,
      "[": 40,
      "\\": 41,
      "]": 42,
      "^": 43,
      "_": 44,
      "`": 45,
      "z": 46,
      "{": 47,
      "|": 48,
      "}": 49,
      "~": 50,
      "ँ": 51,
      "ं": 52,
      "ः": 53,
      "अ": 54,
      "आ": 55,
      "इ": 56,
      "ई": 57,
      "उ": 58,
      "ऊ": 59,
      "ऋ": 60,
      "ऌ": 61,
      "ऍ": 62,
      "ऎ": 63,
      "ए": 64,
      "ऐ": 65,
      "ऑ": 66,
      "ऒ": 67,
      "ओ": 68,
      "औ": 69,
      "क": 70,
      "ख": 71,
      "ग": 72,
      "घ": 73,
      "ङ": 74,
      "च": 75,
      "छ": 76,
      "ज": 77,
      "झ": 78,
      "ञ": 79,
      "ट": 80,
      "ठ": 81,
      "ड": 82,
      "ढ": 83,
      "ण": 84,
      "त": 85,
      "थ": 86,
      "द": 87,
      "ध": 88,
      "न": 89,
      "ऩ": 90,
      "प": 91,
      "फ": 92,
      "ब": 93,
      "भ": 94,
      "म": 95,
      "य": 96,
      "र": 97,
      "ऱ": 98,
      "ल": 99,
      "ळ": 100,
      "ऴ": 101,
      "व": 102,
      "श": 103,
      "ष": 104,
      "स": 105,
      "ह": 106,
      "ऺ": 107,
      "ऻ": 108,
      "़": 109,
      "ऽ": 110,
      "ा": 111,
      "ि": 112,
      "ी": 113,
      "ु": 114,
      "ू": 115,
      "ृ": 116,
      "ॄ": 117,
      "ॅ": 118,
      "ॆ": 119,
      "े": 120,
      "ै": 121,
      "ॉ": 122,
      "ॊ": 123,
      "ो": 124,
      "ौ": 125,
      "्": 126,
      "ॎ": 127,
      "ॐ": 128,
      "॑": 129,
      "॒": 130,
      "॓": 131,
      "॔": 132,
      "ॕ": 133,
      "ॠ": 134,
      "ॡ": 135,
      "ॢ": 136,
      "।": 137,
      "॥": 138,
      "०": 139,
      "१": 140,
      "२": 141,
      "३": 142,
      "४": 143,
      "५": 144,
      "६": 145,
      "७": 146,
      "८": 147,
      "९": 148,
      "॰": 149,
      "ॱ": 150,
      "ॲ": 151,
      "ॴ": 152,
      "ॵ": 153,
      "ॶ": 154,
      "ॻ": 155,
      "ॼ": 156,
      "ॽ": 157,
      "ॾ": 158,
      "ॿ": 159,
      "“": 160,
      "▁": 161,
      "▁क": 162,
      "▁स": 163,
      "▁ह": 164,
      "▁म": 165,
      "▁प": 166,
      "▁के": 167,
      "▁ब": 168,
      "▁ज": 169,
      "ें": 170,
      "ार": 171,
      "▁न": 172,
      "्र": 173,
      "या": 174,
      "▁अ": 175,
      "▁द": 176,
      "▁ल": 177,
      "▁है": 178,
      "▁व": 179,
      "▁में": 180,
      "▁र": 181,
      "▁आ": 182,
      "ने": 183,
      "▁ग": 184,
      "▁उ": 185,
      "ों": 186,
      "ता": 187,
      "▁से": 188,
      "र्": 189,
      "▁ए": 190,
      "ान": 191,
      "▁कि": 192,
      "▁त": 193,
      "▁की": 194,
      "▁भ": 195,
      "▁कर": 196,
      "▁औ": 197,
      "▁को": 198,
      "▁और": 199,
      "्य": 200,
      "ना": 201,
      "▁का": 202,
      "िक": 203,
      "ला": 204,
      "▁च": 205,
      "▁इ": 206,
      "▁थ": 207,
      "▁पर": 208,
      "▁प्र": 209,
      "▁एक": 210,
      "ड़": 211,
      "स्": 212,
      "▁श": 213,
      "ही": 214,
      "ित": 215,
      "▁हो": 216,
      "▁बा": 217,
      "हा": 218,
      "वा": 219,
      "क्": 220,
      "▁य": 221,
      "िए": 222,
      "▁सा": 223,
      "▁ने": 224,
      "▁जा": 225,
      "ते": 226,
      "ले": 227,
      "रा": 228,
      "के": 229,
      "▁ख": 230,
      "िन": 231,
      "▁हैं": 232,
      "िया": 233,
      "▁है।": 234,
      "से": 235,
      "▁वि": 236,
      "हीं": 237,
      "▁दे": 238,
      "ति": 239,
      "▁स्": 240,
      "▁लिए": 241,
      "री": 242,
      "▁फ": 243,
      "▁इस": 244,
      "▁अप": 245,
      "ंग": 246,
      "्या": 247,
      "▁नहीं": 248,
      "▁था": 249,
      "▁सम": 250,
      "िय": 251,
      "▁उन": 252,
      "ली": 253,
      "▁ले": 254,
      "का": 255,
      "▁भी": 256,
      "ती": 257,
      "▁सं": 258,
      "▁रा": 259,
      "▁\"": 260,
      "नी": 261,
      "▁हम": 262,
      "त्र": 263,
      "▁उस": 264,
      "ोग": 265,
      "त्": 266,
      "िल": 267,
      "▁रह": 268,
      "ुर": 269,
      "▁ड": 270,
      "▁मु": 271,
      "▁यह": 272,
      "कर": 273,
      "ैं": 274,
      "िस": 275,
      "मा": 276,
      "▁कु": 277,
      "▁किया": 278,
      "▁छ": 279,
      "▁वा": 280,
      "रे": 281,
      "गा": 282,
      "▁हु": 283,
      "सा": 284,
      "ंद": 285,
      "▁आप": 286,
      "▁घ": 287,
      "सी": 288,
      "्ट": 289,
      "▁मा": 290,
      "ारी": 291,
      "▁ट": 292,
      "्व": 293,
      "▁गया": 294,
      "िर": 295,
      "की": 296,
      "▁जो": 297,
      "क्ष": 298,
      "ेश": 299,
      "▁पह": 300,
      "▁नि": 301,
      "▁पा": 302,
      "▁वह": 303,
      "▁साथ": 304,
      "्ह": 305,
      "ूप": 306,
      "▁मे": 307,
      "▁ओ": 308,
      "▁मैं": 309,
      "▁१": 310,
      "ाल": 311,
      "▁कार": 312,
      "▁अन": 313,
      "िला": 314,
      "▁हैं।": 315,
      "▁करने": 316,
      "▁सक": 317,
      "ाम": 318,
      "ाय": 319,
      "▁ध": 320,
      "▁सु": 321,
      "ेल": 322,
      "▁है,": 323,
      "भी": 324,
      "▁ही": 325,
      "▁रूप": 326,
      "कार": 327,
      "▁अपने": 328,
      "▁अध": 329,
      "▁पू": 330,
      "च्": 331,
      "्द": 332,
      "ढ़": 333,
      "▁या": 334,
      "▁लोग": 335,
      "▁तो": 336,
      "▁थी": 337,
      "▁देख": 338,
      "्म": 339,
      "ाव": 340,
      "कि": 341,
      "▁कुछ": 342,
      "▁उन्ह": 343,
      "स्त": 344,
      "ारा": 345,
      "ुल": 346,
      "▁दो": 347,
      "किन": 348,
      "ोज": 349,
      "ंड": 350,
      "▁२": 351,
      "ाह": 352,
      "▁कहा": 353,
      "▁ला": 354,
      "िव": 355,
      "▁दिया": 356,
      "े।": 357,
      "ंच": 358,
      "जा": 359,
      "ंत": 360,
      "▁मह": 361,
      "▁लेकिन": 362,
      "्ष": 363,
      "▁बह": 364,
      "ियों": 365,
      "▁तक": 366,
      "▁भा": 367,
      "▁लग": 368,
      "▁सि": 369,
      "▁जब": 370,
      "▁हा": 371,
      "▁बाद": 372,
      "गर": 373,
      "मी": 374,
      "▁तर": 375,
      "ानी": 376,
      "्री": 377,
      "▁बार": 378,
      "ाना": 379,
      "▁हुए": 380,
      "ल्": 381,
      "्त": 382,
      "▁उप": 383,
      "ुत": 384,
      "हर": 385,
      "ार्": 386,
      "▁सब": 387,
      "▁जी": 388,
      "▁ई": 389,
      "ष्ट": 390,
      "्ध": 391,
      "इल": 392,
      "▁दू": 393,
      "▁कह": 394,
      "▁रहा": 395,
      "▁रहे": 396,
      "दा": 397,
      "▁राज": 398,
      "▁वे": 399,
      "▁बे": 400,
      "ओं": 401,
      "ड़ा": 402,
      "दी": 403,
      "▁ना": 404,
      "टी": 405,
      "▁बि": 406,
      "वि": 407,
      "ड़ी": 408,
      "जी": 409,
      "▁गई": 410,
      "▁स्थ": 411,
      "▁अधिक": 412,
      "झे": 413,
      "वे": 414,
      "श्": 415,
      "▁सी": 416,
      "बा": 417,
      "▁ऐ": 418,
      "गी": 419,
      "▁बी": 420,
      "▁था।": 421,
      "स्थ": 422,
      "▁चाह": 423,
      "▁तरह": 424,
      "ास": 425,
      "ंध": 426,
      "स्ट": 427,
      "▁\"\"": 428,
      "▁।": 429,
      "रो": 430,
      "मान": 431,
      "▁दु": 432,
      "▁जिस": 433,
      "▁बहुत": 434,
      "्रे": 435,
      "▁पी": 436,
      "द्ध": 437,
      "ोंने": 438,
      "टा": 439,
      "▁सो": 440,
      "▁मुझे": 441,
      "को": 442,
      "▁बना": 443,
      "▁द्व": 444,
      "टे": 445,
      "▁करते": 446,
      "▁उसे": 447,
      "भा": 448,
      "च्छ": 449,
      "वन": 450,
      "▁दी": 451,
      "▁व्य": 452,
      "हाँ": 453,
      "▁वर्": 454,
      "मे": 455,
      "नों": 456,
      "ंत्र": 457,
      "▁क्या": 458,
      "तर": 459,
      "▁अनु": 460,
      "▁बात": 461,
      "खा": 462,
      "▁थे": 463,
      "▁जान": 464,
      "्यों": 465,
      "वी": 466,
      "▁बता": 467,
      "▁कम": 468,
      "▁उन्होंने": 469,
      "▁गा": 470,
      "में": 471,
      "गे": 472,
      "▁पहले": 473,
      "▁जे": 474,
      "टर": 475,
      "ज़": 476,
      "ूँ": 477,
      "बर": 478,
      "्स": 479,
      "▁अब": 480,
      "▁उसके": 481,
      "▁दिन": 482,
      "▁समय": 483,
      "ूल": 484,
      "िश": 485,
      "देश": 486,
      "▁निर्": 487,
      "▁ऊ": 488,
      "चा": 489,
      "पा": 490,
      "▁गए": 491,
      "ोर": 492,
      "▁कोई": 493,
      "▁अपनी": 494,
      "▁क्ष": 495,
      "▁जै": 496,
      "चार": 497,
      "▁लगा": 498,
      "▁हैं,": 499,
      "ोल": 500,
      "▁काम": 501,
      "▁किसी": 502,
      "▁चु": 503,
      "▁विश": 504,
      "▁मौ": 505,
      "▁रही": 506,
      "▁द्वारा": 507,
      "ाप": 508,
      "▁फिर": 509,
      "▁झ": 510,
      "▁उनके": 511,
      "▁सकता": 512,
      "क्ति": 513,
      "▁खु": 514,
      "▁लोगों": 515,
      "▁ठ": 516,
      "▁जन": 517,
      "पी": 518,
      "▁इन": 519,
      "▁जाए": 520,
      "▁सर": 521,
      "▁सभी": 522,
      "शन": 523,
      "▁छो": 524,
      "्यक": 525,
      "ड़े": 526,
      "▁दि": 527,
      "ौर": 528,
      "▁उत्": 529,
      "▁मो": 530,
      "▁खा": 531,
      "▁पुल": 532,
      "ीन": 533,
      "▁भार": 534,
      "योग": 535,
      "▁रो": 536,
      "ूर्": 537,
      "▁कै": 538,
      "▁घर": 539,
      "्रा": 540,
      "वल": 541,
      "र्म": 542,
      "▁गु": 543,
      "जन": 544,
      "▁जाता": 545,
      "िका": 546,
      "▁पास": 547,
      "्ञ": 548,
      "▁'": 549,
      "▁प्रति": 550,
      "▁करें": 551,
      "..": 552,
      "्ल": 553,
      "▁था,": 554,
      "ुक": 555,
      "सर": 556,
      "्न": 557,
      "▁उसने": 558,
      "चे": 559,
      "▁मान": 560,
      "▁हुआ": 561,
      "िंग": 562,
      "▁गो": 563,
      "▁पु": 564,
      "▁पुलिस": 565,
      "ंह": 566,
      "▁चल": 567,
      "मार": 568,
      "पुर": 569,
      "▁मिल": 570,
      "▁रख": 571,
      "वर": 572,
      "ंस": 573,
      "ारे": 574,
      "▁हि": 575,
      "▁अल": 576,
      "▁उन्हें": 577,
      "▁अच्छ": 578,
      "▁जि": 579,
      "ेत्र": 580,
      "▁३": 581,
      "▁होने": 582,
      "▁नी": 583,
      "ष्": 584,
      "ृत": 585,
      "▁मि": 586,
      "्रम": 587,
      "▁२०": 588,
      "वार": 589,
      "क्त": 590,
      "▁सकते": 591,
      "▁करता": 592,
      "▁इसके": 593,
      "▁आद": 594,
      "▁ओर": 595,
      "▁क्षेत्र": 596,
      "पर": 597,
      "▁पहु": 598,
      "▁करना": 599,
      "▁बारे": 600,
      "▁बै": 601,
      "▁परि": 602,
      "▁बु": 603,
      "▁बढ़": 604,
      "धार": 605,
      "▁हूँ": 606,
      "▁सह": 607,
      "▁लि": 608,
      "▁अव": 609,
      "बंध": 610,
      "▁बन": 611,
      "▁शुर": 612,
      "▁ता": 613,
      "्यू": 614,
      "▁हर": 615,
      "▁मन": 616,
      "गो": 617,
      "▁क्यों": 618,
      "▁यु": 619,
      "▁गया।": 620,
      "▁कई": 621,
      "र्व": 622,
      "गा।": 623,
      "भाव": 624,
      "▁हे": 625,
      "▁ऐसा": 626,
      "▁पि": 627,
      "▁वाले": 628,
      "▁मै": 629,
      "ूर": 630,
      "▁अपना": 631,
      "जे": 632,
      "▁बताया": 633,
      "▁पै": 634,
      "हार": 635,
      "ोक": 636,
      "▁एह": 637,
      "▁शिक": 638,
      "म्": 639,
      "कों": 640,
      "▁चाहिए": 641,
      "चित": 642,
      "▁दूस": 643,
      "▁सिंह": 644,
      "▁में,": 645,
      "▁विक": 646,
      "▁हुई": 647,
      "▁आज": 648,
      "▁बीच": 649,
      "▁साम": 650,
      "नि": 651,
      "णा": 652,
      "▁थे।": 653,
      "▁निक": 654,
      "लय": 655,
      "▁माम": 656,
      "▁सबसे": 657,
      "सन": 658,
      "जार": 659,
      "िप": 660,
      "र्थ": 661,
      "▁साल": 662,
      "▁थी।": 663,
      "▁स्व": 664,
      "शी": 665,
      "▁ऑ": 666,
      "▁दर्": 667,
      "क्षा": 668,
      "▁मैंने": 669,
      "▁लिया": 670,
      "शा": 671,
      "बी": 672,
      "▁मेरे": 673,
      "▁कारण": 674,
      "▁नाम": 675,
      "ख्या": 676,
      "ेर": 677,
      "▁ग्र": 678,
      "ध्य": 679,
      "▁हल": 680,
      "दार": 681,
      "▁अछ": 682,
      "ंत्री": 683,
      "▁जिला": 684,
      "र्ट": 685,
      "निया": 686,
      "ूम": 687,
      "▁जिन": 688,
      "▁उसकी": 689,
      "▁आपको": 690,
      "▁टी": 691,
      "▁रहल": 692,
      "▁शा": 693,
      "▁अभ": 694,
      "▁अन्य": 695,
      "▁देश": 696,
      "▁शाम": 697,
      "त्व": 698,
      "▁जल": 699,
      "िति": 700,
      "हां": 701,
      "िवार": 702,
      "ुम": 703,
      "▁बच्": 704,
      "धान": 705,
      "\",": 706,
      "▁बद": 707,
      "ज्ञ": 708,
      "था": 709,
      "▁पार": 710,
      "▁इसे": 711,
      "▁अछि": 712,
      "ेष": 713,
      "▁अगर": 714,
      "▁जीवन": 715,
      "ून": 716,
      "वान": 717,
      "वाद": 718,
      "डी": 719,
      "त्म": 720,
      "▁बो": 721,
      "▁महिला": 722,
      "िम": 723,
      "▁करे": 724,
      "ठा": 725,
      "▁आय": 726,
      "▁आव": 727,
      "वास": 728,
      "▁सू": 729,
      "कारी": 730,
      "▁५": 731,
      "▁उद": 732,
      "▁अंत": 733,
      "▁अलग": 734,
      "▁भारत": 735,
      "म्म": 736,
      "▁४": 737,
      "▁शुरू": 738,
      "बे": 739,
      "ंक": 740,
      "▁पहुंच": 741,
      "▁श्री": 742,
      "००": 743,
      "▁व्यक्ति": 744,
      "▁गइल": 745,
      "▁क्योंकि": 746,
      "▁रु": 747,
      "▁एगो": 748,
      "मु": 749,
      "--": 750,
      "▁जु": 751,
      "षा": 752,
      "ंप": 753,
      "▁होता": 754,
      "टना": 755,
      "ंव": 756,
      "▁रे": 757,
      "▁मुख": 758,
      "पूर्": 759,
      "स्ता": 760,
      "दान": 761,
      "चना": 762,
      "तना": 763,
      "▁राज्य": 764,
      "▁प्रा": 765,
      "▁हाथ": 766,
      "रण": 767,
      "▁जैसे": 768,
      "दे": 769,
      "न्द": 770,
      "▁गिर": 771,
      "पु": 772,
      "स्क": 773,
      "▁दौर": 774,
      "▁आउ": 775,
      "न्": 776,
      "▁शहर": 777,
      "धा": 778,
      "▁,": 779,
      "▁वाला": 780,
      "▁ची": 781,
      "▁पुर": 782,
      "ंट": 783,
      "▁जाने": 784,
      "स्प": 785,
      "▁तै": 786,
      "▁समझ": 787,
      "▁किया।": 788,
      "▁संग": 789,
      "▁लेकर": 790,
      "▁देखा": 791,
      "सार": 792,
      "ंगा": 793,
      "▁वर्ष": 794,
      "▁संबंध": 795,
      "गत": 796,
      "▁गेल": 797,
      "▁सभ": 798,
      "िल्": 799,
      "▁सरकार": 800,
      "वं": 801,
      "▁डॉ": 802,
      "▁उनकी": 803,
      "▁कभी": 804,
      "▁कार्य": 805,
      "▁दोनों": 806,
      "इन": 807,
      "स्तव": 808,
      "ैन": 809,
      "▁केवल": 810,
      "▁स्ट": 811,
      "ूं": 812,
      "▁भोज": 813,
      "▁समा": 814,
      "▁कुमार": 815,
      "▁विशेष": 816,
      "ैत": 817,
      "खे": 818,
      "्टी": 819,
      "सि": 820,
      "लो": 821,
      "▁तब": 822,
      "हन": 823,
      "ंदर": 824,
      "▁जग": 825,
      "▁चौ": 826,
      "▁दौरान": 827,
      "▁स्प": 828,
      "▁शिक्ष": 829,
      "हि": 830,
      "▁बाहर": 831,
      "र्क": 832,
      "▁चे": 833,
      "श्यक": 834,
      "▁कॉ": 835,
      "लन": 836,
      "पाल": 837,
      "▁प्रत": 838,
      "▁अच्छा": 839,
      "ोट": 840,
      "▁तीन": 841,
      "ब्द": 842,
      "▁पता": 843,
      "ची": 844,
      "लों": 845,
      "▁ते": 846,
      "▁निय": 847,
      "जर": 848,
      "▁-": 849,
      "▁लड़": 850,
      "▁वास्तव": 851,
      "▁स्क": 852,
      "▁व्या": 853,
      "▁अग": 854,
      "▁मुख्य": 855,
      "▁आरो": 856,
      "द्र": 857,
      "▁भाग": 858,
      "▁भे": 859,
      "▁आवश्यक": 860,
      "▁ढ": 861,
      "सान": 862,
      "प्र": 863,
      "ियो": 864,
      "त्रा": 865,
      "हे": 866,
      "र्ड": 867,
      "एँ": 868,
      "▁चा": 869,
      "बू": 870,
      "प्": 871,
      "जू": 872,
      "▁विचार": 873,
      "▁प्रकार": 874,
      "▁पे": 875,
      "▁आई": 876,
      "▁दर": 877,
      "दर्": 878,
      "▁मार": 879,
      "▁अध्य": 880,
      "▁दिया।": 881,
      "▁चार": 882,
      "न,": 883,
      "पूर्ण": 884,
      "्ड": 885,
      "भाग": 886,
      "▁१९": 887,
      "ाप्त": 888,
      "▁सुर": 889,
      "▁बैठ": 890,
      "गी।": 891,
      "▁खुद": 892,
      "लिए": 893,
      "▁छा": 894,
      "▁खिला": 895,
      "▁दूसरे": 896,
      "करा": 897,
      "ुआ": 898,
      "▁कार्यक": 899,
      "ीक": 900,
      "▁पढ़": 901,
      "▁शामिल": 902,
      "▁भर": 903,
      "ेंट": 904,
      "▁उपयोग": 905,
      "▁स्वा": 906,
      "िट": 907,
      "▁डे": 908,
      "यों": 909,
      "ूस": 910,
      "यर": 911,
      "▁पो": 912,
      "▁पड़": 913,
      "▁फिल": 914,
      "▁चला": 915,
      "हित": 916,
      "▁ली": 917,
      "▁पानी": 918,
      "लक": 919,
      "▁आगे": 920,
      "फी": 921,
      "▁गांव": 922,
      "▁एस": 923,
      "▁तैय": 924,
      "▁सद": 925,
      "▁इसलिए": 926,
      "▁व्यव": 927,
      "्यालय": 928,
      "▁महा": 929,
      "गे।": 930,
      "▁गई।": 931,
      "माण": 932,
      "स्था": 933,
      "▁अभी": 934,
      "ंद्र": 935,
      "▁ये": 936,
      "र्ष": 937,
      "करण": 938,
      "▁खेल": 939,
      "▁हमारे": 940,
      "▁किए": 941,
      "▁रात": 942,
      "ंज": 943,
      "▁राम": 944,
      "भव": 945,
      "▁वाली": 946,
      "हरा": 947,
      "वाई": 948,
      "▁याद": 949,
      "▁होगा": 950,
      "▁भग": 951,
      "▁छोड़": 952,
      "▁बस": 953,
      "▁हाला": 954,
      "▁शब्द": 955,
      "एं": 956,
      "▁६": 957,
      "▁डी": 958,
      "▁मार्": 959,
      "▁वै": 960,
      "▁दा": 961,
      "ँच": 962,
      "▁करा": 963,
      "ियन": 964,
      "▁क्र": 965,
      "▁राष्ट": 966,
      "▁_": 967,
      "गल": 968,
      "▁सम्म": 969,
      "लब": 970,
      "भग": 971,
      "▁मी": 972,
      "पन": 973,
      "▁पूछ": 974,
      "ोन": 975,
      "क्ट": 976,
      "▁मत": 977,
      "ोजना": 978,
      "रिक": 979,
      "तन": 980,
      "▁भाषा": 981,
      "▁एवं": 982,
      "▁डा": 983,
      "▁होती": 984,
      "▁देने": 985,
      "दि": 986,
      "क्टर": 987,
      "▁पीछ": 988,
      "▁दृ": 989,
      "तीय": 990,
      "ल,": 991,
      "▁रुप": 992,
      "▁पूरी": 993,
      "ृति": 994,
      "▁है?": 995,
      "▁उनका": 996,
      "▁थे,": 997,
      "ार्थ": 998,
      "▁प्रश": 999,
      "▁दुनिया": 1000,
      "लि": 1001,
      "▁दूर": 1002,
      "▁पूर्व": 1003,
      "मंत्री": 1004,
      "▁पर्": 1005,
      "▁पक": 1006,
      "ये": 1007,
      "▁इला": 1008,
      "ित्र": 1009,
      "्रीय": 1010,
      "▁सफ": 1011,
      "▁नीचे": 1012,
      "ोध": 1013,
      "▁यहाँ": 1014,
      "▁लोक": 1015,
      "▁आया": 1016,
      "▁लगभग": 1017,
      "वक": 1018,
      "▁विकास": 1019,
      "▁आदमी": 1020,
      "िता": 1021,
      "▁जर": 1022,
      "...": 1023,
      "ूट": 1024,
      "▁डि": 1025,
      "▁ब्र": 1026,
      "हत": 1027,
      "ायत": 1028,
      "▁स्थान": 1029,
      "▁उसका": 1030,
      "▁घटना": 1031,
      "ुष": 1032,
      "▁जानकारी": 1033,
      "▁थी,": 1034,
      "▁अस": 1035,
      "▁सौ": 1036,
      "▁आपके": 1037,
      "णी": 1038,
      "▁तुम": 1039,
      "थि": 1040,
      "▁लगता": 1041,
      "▁जगह": 1042,
      "ंबर": 1043,
      "ें।": 1044,
      "▁७": 1045,
      "धिक": 1046,
      "▁सुन": 1047,
      "▁परिवार": 1048,
      "▁ग्राम": 1049,
      "र्स": 1050,
      "दन": 1051,
      "पुरी": 1052,
      "ड़क": 1053,
      "▁सोच": 1054,
      "▁पूरा": 1055,
      "▁बंद": 1056,
      "हल": 1057,
      "ताओं": 1058,
      "▁बिना": 1059,
      "▁भगवान": 1060,
      "▁नगर": 1061,
      "▁विद": 1062,
      "्यान": 1063,
      "▁आयोज": 1064,
      "▁मामले": 1065,
      "यन": 1066,
      "▁विश्": 1067,
      "पस": 1068,
      "क्स": 1069,
      "जूद": 1070,
      "▁हजार": 1071,
      "ज्ञान": 1072,
      "ंति": 1073,
      "▁समाज": 1074,
      "▁करी": 1075,
      "ीत": 1076,
      "▁आम": 1077,
      "ैंड": 1078,
      "त्मक": 1079,
      "राम": 1080,
      "कान": 1081,
      "▁सामने": 1082,
      "▁जल्द": 1083,
      "ोष": 1084,
      "▁तैयार": 1085,
      "▁आँ": 1086,
      "▁प्रदेश": 1087,
      "▁खिलाफ": 1088,
      "▁पद": 1089,
      "नाव": 1090,
      "ंग्रे": 1091,
      "▁ऊपर": 1092,
      "▁जिसमें": 1093,
      "▁आग": 1094,
      "▁प्राप्त": 1095,
      "▁मांग": 1096,
      "▁मज": 1097,
      "चान": 1098,
      "▁खे": 1099,
      "▁जहाँ": 1100,
      "▁कार्यक्रम": 1101,
      "▁ठीक": 1102,
      "▁आर": 1103,
      "▁८": 1104,
      "ुन": 1105,
      "काश": 1106,
      "एम": 1107,
      "▁पत्": 1108,
      "ार्ड": 1109,
      "▁विश्व": 1110,
      "िन्न": 1111,
      "▁मेरी": 1112,
      "▁महत्व": 1113,
      "वाल": 1114,
      "▁हिस्": 1115,
      "▁अध्यक्ष": 1116,
      "▁प्रभाव": 1117,
      "▁स्थिति": 1118,
      "▁फै": 1119,
      "ाई": 1120,
      "▁वहाँ": 1121,
      "▁सामान": 1122,
      "▁कान": 1123,
      "▁१०": 1124,
      "धी": 1125,
      "▁जिसे": 1126,
      "▁अनुसार": 1127,
      "▁तरी": 1128,
      "▁लिए,": 1129,
      "▁की।": 1130,
      "फ्त": 1131,
      "ताल": 1132,
      "▁कल": 1133,
      "▁विभाग": 1134,
      "ष्ठ": 1135,
      "▁जाला": 1136,
      "▁हमें": 1137,
      "▁कब": 1138,
      "वाब": 1139,
      "▁लं": 1140,
      "▁दिखा": 1141,
      "▁मूल": 1142,
      "▁स्कूल": 1143,
      "श्चित": 1144,
      "ध्यम": 1145,
      "▁भोजपुरी": 1146,
      "▁प्रक": 1147,
      "ल्प": 1148,
      "▁कुल": 1149,
      "▁थाना": 1150,
      "▁ट्र": 1151,
      "▁आस": 1152,
      "▁कैसे": 1153,
      "▁रि": 1154,
      "▁पीछे": 1155,
      "▁ती": 1156,
      "▁जांच": 1157,
      "ुक्त": 1158,
      "ँव": 1159,
      "▁आए": 1160,
      "▁सके": 1161,
      "इक": 1162,
      "▁यू": 1163,
      "▁प्य": 1164,
      "्यादा": 1165,
      "▁अधिकार": 1166,
      "▁लाख": 1167,
      "राब": 1168,
      "▁हों": 1169,
      "▁मिला": 1170,
      "▁जाना": 1171,
      "द्धा": 1172,
      "तिर": 1173,
      "ीय": 1174,
      "▁कौ": 1175,
      "▁आधार": 1176,
      "-अ": 1177,
      "▁तथा": 1178,
      "▁उठा": 1179,
      "▁वी": 1180,
      "▁कइल": 1181,
      "▁हूं": 1182,
      "▁कहा।": 1183,
      "▁पत्र": 1184,
      "▁आवा": 1185,
      "▁ज्ञ": 1186,
      "नो": 1187,
      "▁होते": 1188,
      "संद": 1189,
      "बह": 1190,
      "▁जवाब": 1191,
      "▁उत्तर": 1192,
      "▁अस्प": 1193,
      "▁२०१": 1194,
      "चों": 1195,
      "धि": 1196,
      "▁मंद": 1197,
      "▁बोल": 1198,
      "▁भाव": 1199,
      "▁९": 1200,
      "ेट": 1201,
      "▁जारी": 1202,
      "▁वापस": 1203,
      "▁पिता": 1204,
      "रि": 1205,
      "▁योजना": 1206,
      "▁विभ": 1207,
      "स्य": 1208,
      "▁करती": 1209,
      "▁ध्यान": 1210,
      "▁सकती": 1211,
      "क्षण": 1212,
      "▁रंग": 1213,
      "ियाँ": 1214,
      "▁भारतीय": 1215,
      "▁बा।": 1216,
      "्याय": 1217,
      "▁अला": 1218,
      "▁से,": 1219,
      "ासन": 1220,
      "एस": 1221,
      "स्या": 1222,
      "ुट": 1223,
      "हो": 1224,
      "ायद": 1225,
      "▁माध्यम": 1226,
      "तार": 1227,
      "▁खातिर": 1228,
      "▁अम": 1229,
      "-प": 1230,
      "▁ऐसे": 1231,
      "▁सिर": 1232,
      "श्च": 1233,
      "▁होना": 1234,
      "▁गल": 1235,
      "▁टीम": 1236,
      "▁इससे": 1237,
      "▁इसका": 1238,
      "▁मेरा": 1239,
      "ैक": 1240,
      "ंश": 1241,
      "ेक": 1242,
      "▁पसंद": 1243,
      "▁बर": 1244,
      "▁मौत": 1245,
      "?\"": 1246,
      "▁विश्वास": 1247,
      "▁जाती": 1248,
      "▁जबकि": 1249,
      "▁मृत": 1250,
      "▁अइ": 1251,
      "▁सम्मान": 1252,
      "▁लिख": 1253,
      "इट": 1254,
      "हरी": 1255,
      "▁सँ": 1256,
      "▁विभिन्न": 1257,
      "तिक": 1258,
      "▁जाते": 1259,
      "▁हमरा": 1260,
      "वासी": 1261,
      "सं": 1262,
      "▁आवश्यकता": 1263,
      "न्द्र": 1264,
      "टक": 1265,
      "▁मद": 1266,
      "▁दर्ज": 1267,
      "या।": 1268,
      "▁सेवा": 1269,
      "▁धन": 1270,
      "▁लाल": 1271,
      "▁करो": 1272,
      "▁सड़क": 1273,
      "▁कोश": 1274,
      "ायक": 1275,
      "▁शायद": 1276,
      "ियर": 1277,
      "▁बच्चों": 1278,
      "ियां": 1279,
      "इत": 1280,
      "▁इं": 1281,
      "▁चर्": 1282,
      "मन": 1283,
      "▁स्पष्ट": 1284,
      "▁निर्माण": 1285,
      "ेशा": 1286,
      "्ला": 1287,
      "त्या": 1288,
      "▁दें": 1289,
      "तु": 1290,
      "▁सच": 1291,
      "▁आरोप": 1292,
      "▁मंदिर": 1293,
      "▁चि": 1294,
      "▁ओकरा": 1295,
      "▁पिछ": 1296,
      "▁प्रया": 1297,
      "▁आने": 1298,
      "▁रखा": 1299,
      "▁कप": 1300,
      "▁राजा": 1301,
      "ंगल": 1302,
      "▁कहा,": 1303,
      "र्ग": 1304,
      "▁काफी": 1305,
      "▁मंत्री": 1306,
      "▁बजे": 1307,
      "▁ज़": 1308,
      "▁कृ": 1309,
      "▁आँख": 1310,
      "▁गया,": 1311,
      "मुख": 1312,
      "▁बड़ी": 1313,
      "▁संख्या": 1314,
      "▁भाई": 1315,
      "स्ते": 1316,
      "▁अलावा": 1317,
      "▁भूम": 1318,
      "▁ज्यादा": 1319,
      "▁हइ": 1320,
      "▁थो": 1321,
      "▁व्याप": 1322,
      "▁गिरफ्त": 1323,
      "▁गए।": 1324,
      "▁प्रे": 1325,
      "ंकि": 1326,
      "▁नौ": 1327,
      "र्ण": 1328,
      "▁एन": 1329,
      "▁समस्या": 1330,
      "▁शिक्षा": 1331,
      "▁गै": 1332,
      "▁अर्थ": 1333,
      "▁पंच": 1334,
      "श्व": 1335,
      "वेश": 1336,
      "▁चुनाव": 1337,
      "▁योग": 1338,
      "▁कंप": 1339,
      "▁जिसके": 1340,
      "▁करीब": 1341,
      "▁मिले": 1342,
      "▁स्थित": 1343,
      "ं।": 1344,
      "▁बिहार": 1345,
      "▁जैसा": 1346,
      "ॉल": 1347,
      "▁रहने": 1348,
      "▁बनाने": 1349,
      "▁समु": 1350,
      "▁माँ": 1351,
      "▁एकर": 1352,
      "▁प्रधान": 1353,
      "▁आक": 1354,
      "द्द": 1355,
      "▁जिले": 1356,
      "▁बच": 1357,
      "▁आदि": 1358,
      "▁दौ": 1359,
      "टन": 1360,
      "▁इसमें": 1361,
      "▁टे": 1362,
      "▁हमेशा": 1363,
      "पति": 1364,
      "▁मर": 1365,
      "▁निर्देश": 1366,
      "र,": 1367,
      "▁सुबह": 1368,
      "-क": 1369,
      "▁किसान": 1370,
      "▁कोशिश": 1371,
      "र्फ": 1372,
      "▁ऑफ": 1373,
      "▁सित": 1374,
      "▁यहां": 1375,
      "बल": 1376,
      "ोरी": 1377,
      "ूह": 1378,
      "▁भइल": 1379,
      "▁परेश": 1380,
      "▁नदी": 1381,
      "▁(": 1382,
      "▁अपन": 1383,
      "▁देते": 1384,
      "▁लो": 1385,
      "▁अस्पताल": 1386,
      "▁भू": 1387,
      "▁दिए": 1388,
      "एक": 1389,
      "ग्र": 1390,
      "वाह": 1391,
      "ेंद्र": 1392,
      "तम": 1393,
      "▁प्रयास": 1394,
      "प्त": 1395,
      "▁पं": 1396,
      "▁केंद्र": 1397,
      "▁देता": 1398,
      "▁सही": 1399,
      "▁१८": 1400,
      "▁फिल्म": 1401,
      "▁जानते": 1402,
      "▁यदि": 1403,
      "▁बेह": 1404,
      "द्धांत": 1405,
      "▁पकड़": 1406,
      "▁होगा।": 1407,
      "▁प्रो": 1408,
      "▁निकल": 1409,
      "र्य": 1410,
      "्प": 1411,
      "त्य": 1412,
      "▁बज": 1413,
      "▁चाहिए।": 1414,
      "ेद": 1415,
      "▁गुर": 1416,
      "▁श्र": 1417,
      "▁कइ": 1418,
      "▁एम": 1419,
      "म्मी": 1420,
      "▁चीज": 1421,
      "बाद": 1422,
      "▁कार्र": 1423,
      "▁सहित": 1424,
      "▁हालांकि": 1425,
      "हाय": 1426,
      "सम": 1427,
      "▁कर्म": 1428,
      "▁दृष्ट": 1429,
      "राज": 1430,
      "▁माल": 1431,
      "▁प्रभ": 1432,
      "▁फा": 1433,
      "▁कार्रवाई": 1434,
      "▁मौजूद": 1435,
      "▁बदल": 1436,
      "िल्ली": 1437,
      "▁शिव": 1438,
      "र्त": 1439,
      "▁युवक": 1440,
      "▁दिल": 1441,
      "्रिया": 1442,
      "▁रुपए": 1443,
      "▁विध": 1444,
      "▁अंदर": 1445,
      "▁अच्छी": 1446,
      "▁मही": 1447,
      "स्थित": 1448,
      "ेशन": 1449,
      "रों": 1450,
      "ल्ड": 1451,
      "▁मना": 1452,
      "▁जाय": 1453,
      "▁खो": 1454,
      "▁बड़ा": 1455,
      "▁प्रदर्": 1456,
      "▁प्यार": 1457,
      "ित्व": 1458,
      "▁स्वी": 1459,
      "▁जाएगा।": 1460,
      "ीण": 1461,
      "▁महत्वपूर्ण": 1462,
      "▁तरफ": 1463,
      "हास": 1464,
      "-ब": 1465,
      "थम": 1466,
      "▁समान": 1467,
      "व्य": 1468,
      "▁बढ़ा": 1469,
      "▁उठ": 1470,
      "▁संघ": 1471,
      "जय": 1472,
      "िनि": 1473,
      "▁छी": 1474,
      "▁धर्म": 1475,
      "ॉन": 1476,
      "▁विष": 1477,
      "▁यात्रा": 1478,
      "▁अछि।": 1479,
      "र्मा": 1480,
      "▁अर": 1481,
      "खी": 1482,
      "त्ति": 1483,
      "▁लगी": 1484,
      "प्ता": 1485,
      "▁१२": 1486,
      "▁इत": 1487,
      "सूस": 1488,
      "▁मदद": 1489,
      "्ले": 1490,
      "▁बैठक": 1491,
      "डा": 1492,
      "▁प्रकाश": 1493,
      "▁ओकर": 1494,
      "ंदी": 1495,
      "▁लेख": 1496,
      "▁कला": 1497,
      "म्मीद": 1498,
      "▁१५": 1499,
      "ग्री": 1500,
      "▁सामान्य": 1501,
      "▁किया,": 1502,
      "ोस": 1503,
      "▁जय": 1504,
      "▁हुए,": 1505,
      "▁उम्मीद": 1506,
      "▁अमे": 1507,
      "▁नया": 1508,
      "▁ग्रामीण": 1509,
      "▁प्रमुख": 1510,
      "▁बड़े": 1511,
      "िको": 1512,
      "कल": 1513,
      "इस": 1514,
      "िन्द": 1515,
      "▁युवा": 1516,
      "▁अधिकारी": 1517,
      "▁सिद्धांत": 1518,
      "▁गिरफ्तार": 1519,
      "▁धार": 1520,
      "▁हाल": 1521,
      "क,": 1522,
      "▁डाल": 1523,
      "▁चाहते": 1524,
      "▁आन": 1525,
      "च्च": 1526,
      "▁वहीं": 1527,
      "षण": 1528,
      "ेंस": 1529,
      "जिक": 1530,
      "ट्ट": 1531,
      "▁अद": 1532,
      "▁पार्टी": 1533,
      "▁किन": 1534,
      "ड़ों": 1535,
      "▁विरो": 1536,
      "▁रहे।": 1537,
      "▁इसी": 1538,
      "चाल": 1539,
      "त्री": 1540,
      "र्न": 1541,
      "▁राष्ट्र": 1542,
      "▁ओह": 1543,
      "▁चम": 1544,
      "▁इसकी": 1545,
      "ियम": 1546,
      "▁निश्चित": 1547,
      "▁कांग्रे": 1548,
      "ोह": 1549,
      "▁महसूस": 1550,
      "▁अवसर": 1551,
      "▁जिससे": 1552,
      "▁हिस्सा": 1553,
      "▁एल": 1554,
      "▁जहां": 1555,
      "▁कहल": 1556,
      "तिहास": 1557,
      "▁साहित": 1558,
      "▁गण": 1559,
      "▁शक्ति": 1560,
      "▁लेने": 1561,
      "▁देखने": 1562,
      "▁उससे": 1563,
      "▁शु": 1564,
      "▁जमी": 1565,
      "तों": 1566,
      "▁दोस्त": 1567,
      "▁सूचना": 1568,
      "▁परी": 1569,
      "▁छात्र": 1570,
      "कु": 1571,
      "▁निवासी": 1572,
      "▁झा": 1573,
      "ेंगे": 1574,
      "▁गं": 1575,
      "▁दिव": 1576,
      "▁घं": 1577,
      "सल": 1578,
      "तंत्र": 1579,
      "▁देखते": 1580,
      "ंब": 1581,
      "वरण": 1582,
      "▁बच्चे": 1583,
      "ोर्ट": 1584,
      "▁बेहतर": 1585,
      "टल": 1586,
      "▁स्थाप": 1587,
      "स्थान": 1588,
      "मारी": 1589,
      "▁ज्ञान": 1590,
      "नीय": 1591,
      "िले": 1592,
      "शु": 1593,
      "▁दिल्ली": 1594,
      "▁संभाव": 1595,
      "▁पक्ष": 1596,
      "▁पूजा": 1597,
      "▁करके": 1598,
      "▁छल": 1599,
      "मैं": 1600,
      "हरे": 1601,
      "▁मिश": 1602,
      "ठी": 1603,
      "ुरा": 1604,
      "▁घा": 1605,
      "▁कांग्रेस": 1606,
      "खंड": 1607,
      "लेज": 1608,
      "▁प्रत्य": 1609,
      "डियो": 1610,
      "▁मामला": 1611,
      "▁दीप": 1612,
      "क्षित": 1613,
      "▁इतना": 1614,
      "▁खबर": 1615,
      "▁देव": 1616,
      "▁मौके": 1617,
      "आई": 1618,
      "▁पर्या": 1619,
      "▁ताकि": 1620,
      "▁लेल": 1621,
      "▁बड़": 1622,
      "जपा": 1623,
      "भीर": 1624,
      "▁सहाय": 1625,
      "▁ब्ल": 1626,
      "▁दी।": 1627,
      "▁अंतर": 1628,
      "▁सर्": 1629,
      "▁बल": 1630,
      "▁हूँ।": 1631,
      "ला।": 1632,
      "▁खोज": 1633,
      "ण्ड": 1634,
      "्ज": 1635,
      "▁घोष": 1636,
      "▁११": 1637,
      "▁तर्क": 1638,
      "एल": 1639,
      "▁रोक": 1640,
      "▁सार": 1641,
      "▁हथ": 1642,
      "▁खरी": 1643,
      "▁लौ": 1644,
      "▁होखे": 1645,
      "लाह": 1646,
      "मति": 1647,
      "▁तहत": 1648,
      "▁मिली": 1649,
      "बि": 1650,
      "▁बल्": 1651,
      "लग": 1652,
      "कृत": 1653,
      "▁तुल": 1654,
      "▁आवे": 1655,
      "ें,": 1656,
      "▁वो": 1657,
      "▁भाजपा": 1658,
      "▁बनाया": 1659,
      "ायल": 1660,
      "▁उम": 1661,
      "▁रेल": 1662,
      "▁गति": 1663,
      "▁पृ": 1664,
      "युक्त": 1665,
      "रिया": 1666,
      "▁अति": 1667,
      "नाथ": 1668,
      "▁साहित्य": 1669,
      "▁दुकान": 1670,
      "▁गे": 1671,
      "▁लगे": 1672,
      "▁जीव": 1673,
      "▁छोटे": 1674,
      "विद": 1675,
      "▁बाल": 1676,
      "ता,": 1677,
      "▁महान": 1678,
      "▁दिया,": 1679,
      "धे": 1680,
      "्यु": 1681,
      "गढ़": 1682,
      "ताब": 1683,
      "▁नय": 1684,
      "लाई": 1685,
      "▁हवा": 1686,
      "▁पुरुष": 1687,
      "▁मार्ग": 1688,
      "▁आरोपी": 1689,
      "▁धी": 1690,
      "▁पत्नी": 1691,
      "▁गंभीर": 1692,
      "▁कवि": 1693,
      "▁स्तर": 1694,
      "फा": 1695,
      "▁बिज": 1696,
      "▁वर्ग": 1697,
      "▁बाट": 1698,
      "▁साह": 1699,
      "▁खुश": 1700,
      "▁हैं?": 1701,
      "स्टर": 1702,
      "▁पंचायत": 1703,
      "मित": 1704,
      "स्तु": 1705,
      "▁घु": 1706,
      "▁व्यवस्था": 1707,
      "धन": 1708,
      "▁न्यू": 1709,
      "ंख": 1710,
      "झा": 1711,
      "यं": 1712,
      "▁मंड": 1713,
      "▁दरवा": 1714,
      "णाम": 1715,
      "▁राजनी": 1716,
      "▁परिव": 1717,
      "च्छा": 1718,
      "▁ऐसी": 1719,
      "▁यादव": 1720,
      "▁चले": 1721,
      "▁आदेश": 1722,
      "▁आयोजन": 1723,
      "काल": 1724,
      "▁नए": 1725,
      "▁गाँव": 1726,
      "▁सदस्य": 1727,
      "-स": 1728,
      "ंतिम": 1729,
      "▁चाल": 1730,
      "▁पूरे": 1731,
      "▁किस": 1732,
      "▁देर": 1733,
      "तान": 1734,
      "▁जिन्ह": 1735,
      "ैंक": 1736,
      "इड": 1737,
      "▁समूह": 1738,
      "▁कठ": 1739,
      "▁दिनों": 1740,
      "स्थ्य": 1741,
      "▁राष्ट्रीय": 1742,
      "▁सितंबर": 1743,
      "▁अंतिम": 1744,
      "द्धि": 1745,
      "▁तरीके": 1746,
      "उन": 1747,
      "स्कार": 1748,
      "▁टा": 1749,
      "ॉक": 1750,
      "त,": 1751,
      "ाहरण": 1752,
      "्वी": 1753,
      "▁भावना": 1754,
      "▁जमीन": 1755,
      "सभा": 1756,
      "ष्ण": 1757,
      "▁कहीं": 1758,
      "चल": 1759,
      "ठन": 1760,
      "िकता": 1761,
      "▁गुरु": 1762,
      "माल": 1763,
      "▁पहली": 1764,
      "ेन": 1765,
      "▁गाय": 1766,
      "▁ट्रे": 1767,
      "वादी": 1768,
      "पास": 1769,
      "▁बू": 1770,
      "▁सुना": 1771,
      "▁मतलब": 1772,
      "▁भु": 1773,
      "▁जरूर": 1774,
      "दम": 1775,
      "▁चलते": 1776,
      "▁उद्द": 1777,
      "▁सै": 1778,
      "खन": 1779,
      "▁नहीं,": 1780,
      "लता": 1781,
      "ूक": 1782,
      "▁फर": 1783,
      "▁संर": 1784,
      "▁मोदी": 1785,
      "▁कहना": 1786,
      "▁अइसन": 1787,
      "▁अर्": 1788,
      "▁नइ": 1789,
      "▁नई": 1790,
      "▁बाटे।": 1791,
      "▁बाटे": 1792,
      "ंभ": 1793,
      "▁स्वास्थ्य": 1794,
      "▁सुरक्षा": 1795,
      "ला,": 1796,
      "▁आख": 1797,
      "▁लिया।": 1798,
      "्रो": 1799,
      "▁वर्त": 1800,
      "मत": 1801,
      "▁रखने": 1802,
      "ेंड": 1803,
      "▁विषय": 1804,
      "िष्ट": 1805,
      "ंदा": 1806,
      "▁चिक": 1807,
      "▁शुरुआ": 1808,
      "▁पहचान": 1809,
      "▁परिणाम": 1810,
      "ियान": 1811,
      "▁संबंधित": 1812,
      "▁उद्देश": 1813,
      "▁नेता": 1814,
      "▁एफ": 1815,
      "▁उदाहरण": 1816,
      "▁प्रशासन": 1817,
      "▁चाहता": 1818,
      "▁डर": 1819,
      "!\"": 1820,
      "▁क्ल": 1821,
      "▁अनुभव": 1822,
      "▁बाजार": 1823,
      "▁गि": 1824,
      "▁सीमा": 1825,
      "▁कहानी": 1826,
      "भर": 1827,
      "▁जन्म": 1828,
      "▁२००": 1829,
      "ूब": 1830,
      "▁उल्": 1831,
      "▁आवाज़": 1832,
      "▁रोज": 1833,
      "▁भेज": 1834,
      "▁लु": 1835,
      "▁पहुँच": 1836,
      "िये": 1837,
      "▁चर्चा": 1838,
      "▁प्रत्येक": 1839,
      "▁परेशान": 1840,
      "▁बारिश": 1841,
      "▁जित": 1842,
      "संख्या": 1843,
      "▁प्रदर्शन": 1844,
      "▁प्रदान": 1845,
      "▁स्वीकार": 1846,
      "र्श": 1847,
      "▁रिप": 1848,
      "▁लाभ": 1849,
      "यल": 1850,
      "▁शिकायत": 1851,
      "▁हत्या": 1852,
      "▁सर्व": 1853,
      "▁कवन": 1854,
      "▁लक्ष": 1855,
      "▁एकरा": 1856,
      "▁शरी": 1857,
      "▁प्रवेश": 1858,
      "यान": 1859,
      "▁प्रधानमंत्री": 1860,
      "तो": 1861,
      "▁अपरा": 1862,
      "▁भेल": 1863,
      "▁वर्तमान": 1864,
      "▁तुर": 1865,
      "या,": 1866,
      "▁अफ": 1867,
      "२०": 1868,
      "▁नर": 1869,
      "▁दुर्": 1870,
      "त्ता": 1871,
      "विद्यालय": 1872,
      "मो": 1873,
      "▁शर्मा": 1874,
      "▁जनसंख्या": 1875,
      "त्मा": 1876,
      "▁जल्दी": 1877,
      "▁पिछले": 1878,
      "▁रव": 1879,
      "▁कहते": 1880,
      "▁सुंदर": 1881,
      "वरी": 1882,
      "▁स्वयं": 1883,
      "▁तुलना": 1884,
      "▁गर्": 1885,
      "▁काल": 1886,
      "▁निकाल": 1887,
      "▁होगी": 1888,
      "▁सवाल": 1889,
      "गू": 1890,
      "▁बल्कि": 1891,
      "▁वित": 1892,
      "ल्स": 1893,
      "िज": 1894,
      "▁तेज": 1895,
      "लब्ध": 1896,
      "उस": 1897,
      "▁एड": 1898,
      "दू": 1899,
      "घा": 1900,
      "आर": 1901,
      "▁विन": 1902,
      "▁पूछा": 1903,
      "▁चर": 1904,
      "साद": 1905,
      "माजिक": 1906,
      "▁स्वतंत्र": 1907,
      "▁उपलब्ध": 1908,
      "▁गीत": 1909,
      "▁बने": 1910,
      "▁संक": 1911,
      "मेंट": 1912,
      "▁बेटी": 1913,
      "▁उत्पा": 1914,
      "▁जोर": 1915,
      "▁बचा": 1916,
      "ावे": 1917,
      "▁सांस": 1918,
      "सँ": 1919,
      "▁पुत्र": 1920,
      "▁आपन": 1921,
      "▁शै": 1922,
      "▁नयँ": 1923,
      "▁साफ": 1924,
      "▁शव": 1925,
      "स्त्र": 1926,
      "्मी": 1927,
      "▁न्याय": 1928,
      "▁प्रतिनि": 1929,
      "मि": 1930,
      "▁नै": 1931,
      "▁निर्ण": 1932,
      "हु": 1933,
      "डिया": 1934,
      "▁शादी": 1935,
      "▁समिति": 1936,
      "▁अंग": 1937,
      "▁बिजली": 1938,
      "▁मानव": 1939,
      "▁करोड़": 1940,
      "▁उच्च": 1941,
      "फर": 1942,
      "▁मिन": 1943,
      "हम": 1944,
      "▁पाठ": 1945,
      "ष्य": 1946,
      "▁दल": 1947,
      "▁घंटे": 1948,
      "▁खाली": 1949,
      "तरी": 1950,
      "▁कमी": 1951,
      "▁बाड़": 1952,
      "▁चढ़": 1953,
      "▁चीज़": 1954,
      "▁गलत": 1955,
      "डल": 1956,
      "▁जइ": 1957,
      "▁तू": 1958,
      "▁आसपास": 1959,
      "ँकि": 1960,
      "-ज": 1961,
      "▁हमारी": 1962,
      "द्य": 1963,
      "म्प": 1964,
      "▁प्रेम": 1965,
      "▁शरीर": 1966,
      "ट्टी": 1967,
      "▁मॉ": 1968,
      "▁बनाए": 1969,
      "▁बर्": 1970,
      "▁डॉक्टर": 1971,
      "-द": 1972,
      "ेंगे।": 1973,
      "चन": 1974,
      "▁पर,": 1975,
      "▁शराब": 1976,
      "▁फी": 1977,
      "▁आयोजित": 1978,
      "▁१७": 1979,
      "▁महीने": 1980,
      "▁संभव": 1981,
      "▁हिन्द": 1982,
      "▁अउ": 1983,
      "िकोण": 1984,
      "▁इतिहास": 1985,
      "▁:": 1986,
      "▁अच्छे": 1987,
      "▁कहाँ": 1988,
      "▁प्रस्ता": 1989,
      "ं,": 1990,
      "▁बाइक": 1991,
      "▁सामाजिक": 1992,
      "▁संभावना": 1993,
      "▁धर": 1994,
      "▁संचाल": 1995,
      "दाय": 1996,
      "▁मुख्यमंत्री": 1997,
      "▁दूसरी": 1998,
      "▁है;": 1999,
      "▁राय": 2000,
      "▁१६": 2001,
      "▁कॉलेज": 2002,
      "▁युद्ध": 2003,
      "ंसा": 2004,
      "▁पति": 2005,
      "▁पल": 2006,
      "चर": 2007,
      "▁विरोध": 2008,
      "▁रोड": 2009,
      "▁डॉ.": 2010,
      "▁मुस्क": 2011,
      "▁पूर्ण": 2012,
      "किर": 2013,
      "▁चोरी": 2014,
      "▁१४": 2015,
      "▁नव": 2016,
      "िसा": 2017,
      "▁हलइ": 2018,
      "▁दिहल": 2019,
      "र्ती": 2020,
      "▁संप": 2021,
      "श्य": 2022,
      "▁दृष्टिकोण": 2023,
      "▁कौन": 2024,
      "▁खुशी": 2025,
      "विधा": 2026,
      "▁कंपनी": 2027,
      "▁दस": 2028,
      "▁करेंगे।": 2029,
      "▁करें।": 2030,
      "▁शुरुआत": 2031,
      "▁मजबू": 2032,
      "▁महिलाओं": 2033,
      "▁मग": 2034,
      "▁प्रयोग": 2035,
      "लाल": 2036,
      "▁फ़": 2037,
      "▁उद्देश्य": 2038,
      "▁छोटी": 2039,
      "ब्": 2040,
      "ध्यक्ष": 2041,
      "▁|": 2042,
      "▁गाड़ी": 2043,
      "सू": 2044,
      "▁घो": 2045,
      "▁मूर्": 2046,
      "फ़": 2047,
      "ब्ल": 2048,
      "क्या": 2049,
      "▁तौर": 2050,
      "▁प्रस्ताव": 2051,
      "लेख": 2052,
      "ूबर": 2053,
      "▁विज्ञान": 2054,
      "▁लड़की": 2055,
      "▁कमरे": 2056,
      "ंडा": 2057,
      "वाली": 2058,
      "▁गुण": 2059,
      "▁वार्ड": 2060,
      "िक्ष": 2061,
      "▁हालाँकि": 2062,
      "▁नजर": 2063,
      "▁पुरा": 2064,
      "▁मध्य": 2065,
      "ानीय": 2066,
      "▁कट": 2067,
      "▁लॉ": 2068,
      "▁करवा": 2069,
      "▁\"आ": 2070,
      "दारी": 2071,
      "फे": 2072,
      "पे": 2073,
      "▁दिखाई": 2074,
      "▁कानून": 2075,
      "▁होकर": 2076,
      "▁समर्थ": 2077,
      "▁एहि": 2078,
      "▁करेंगे": 2079,
      "-अलग": 2080,
      "▁पांच": 2081,
      "▁दक्ष": 2082,
      "▁हवे": 2083,
      "शि": 2084,
      "तृ": 2085,
      "▁लगातार": 2086,
      "▁कवनो": 2087,
      "▁गरी": 2088,
      "▁प्रती": 2089,
      "▁चित्र": 2090,
      "▁देवी": 2091,
      "वीं": 2092,
      "▁*": 2093,
      "गम": 2094,
      "▁आत्म": 2095,
      "▁घायल": 2096,
      "▁अलग-अलग": 2097,
      "▁\"मैं": 2098,
      "▁स्थानीय": 2099,
      "▁आपने": 2100,
      "▁प्रक्रिया": 2101,
      "म्बर": 2102,
      "कत": 2103,
      "सव": 2104,
      "▁सोचा": 2105,
      "्यास": 2106,
      "▁१३": 2107,
      "▁अधिकारियों": 2108,
      "गण": 2109,
      "▁३०": 2110,
      "▁अचान": 2111,
      "▁बाकी": 2112,
      "शल": 2113,
      "म्ब": 2114,
      "▁काट": 2115,
      "▁पड़ा": 2116,
      "▁संस्क": 2117,
      "लीन": 2118,
      "▁जाएगा": 2119,
      "▁की,": 2120,
      "▁थोड़ा": 2121,
      "तरा": 2122,
      "ना,": 2123,
      "▁इच्छा": 2124,
      "▁अभियान": 2125,
      "▁हूँ,": 2126,
      "टका": 2127,
      "▁जोड़": 2128,
      "और": 2129,
      "▁विप": 2130,
      "▁धीरे": 2131,
      "▁२५": 2132,
      "▁मिलने": 2133,
      "▁चुन": 2134,
      "▁अनुमति": 2135,
      "▁अभि": 2136,
      "जों": 2137,
      "क्सर": 2138,
      "▁माना": 2139,
      "▁बहा": 2140,
      "▁व्यक्त": 2141,
      "यी": 2142,
      "▁भौ": 2143,
      "▁जनता": 2144,
      "▁आगा": 2145,
      "वत": 2146,
      "स्वी": 2147,
      "सु": 2148,
      "षद": 2149,
      "गार": 2150,
      "▁बाकिर": 2151,
      "▁बोले": 2152,
      "▁इलाका": 2153,
      "▁पहा": 2154,
      "▁रिपोर्ट": 2155,
      "▁पुन": 2156,
      "▁लगाया": 2157,
      "▁प्रसाद": 2158,
      "▁पुस्त": 2159,
      "▁ठो": 2160,
      "जि": 2161,
      "बन": 2162,
      "▁मृत्यु": 2163,
      "स्ती": 2164,
      "▁जेल": 2165,
      "▁जीत": 2166,
      "िशा": 2167,
      "▁अक्ट": 2168,
      "विष्य": 2169,
      "▁भीड़": 2170,
      "▁अचानक": 2171,
      "▁खड़ा": 2172,
      "▁वस्तु": 2173,
      "▁भारी": 2174,
      "यह": 2175,
      "▁आपकी": 2176,
      "▁नेपाल": 2177,
      "▁वृ": 2178,
      "▁प्रेर": 2179,
      "▁भीतर": 2180,
      "्वर": 2181,
      "ट्": 2182,
      "शत": 2183,
      "▁निर्णय": 2184,
      "▁विश्वविद्यालय": 2185,
      "▁तुरंत": 2186,
      "▁रचना": 2187,
      "ार्क": 2188,
      "▁छै": 2189,
      "सो": 2190,
      "▁चिकित": 2191,
      "िकों": 2192,
      "▁नहि": 2193,
      "▁कार्यालय": 2194,
      "▁शी": 2195,
      "▁भविष्य": 2196,
      "धिकारी": 2197,
      "▁पेश": 2198,
      "स्तुत": 2199,
      "▁चारों": 2200,
      "▁रॉ": 2201,
      "मर": 2202,
      "▁संदर्": 2203,
      "गु": 2204,
      "▁हँ": 2205,
      "▁२०२": 2206,
      "▁तीस": 2207,
      "ंता": 2208,
      "बो": 2209,
      "ापन": 2210,
      "▁होला": 2211,
      "ष्क": 2212,
      "▁विद्यालय": 2213,
      "▁अक्टूबर": 2214,
      "▁जिसका": 2215,
      "▁होगी।": 2216,
      "▁संदर्भ": 2217,
      "▁उसी": 2218,
      "▁बेटा": 2219,
      "▁रू": 2220,
      "▁हाँ": 2221,
      "स,": 2222,
      "▁फें": 2223,
      "▁सिर्फ": 2224,
      "▁पीड़": 2225,
      "▁पहिले": 2226,
      "▁दक्षि": 2227,
      "▁व्यापार": 2228,
      "▁?": 2229,
      "्यता": 2230,
      "लू": 2231,
      "▁संगीत": 2232,
      "▁सैन": 2233,
      "▁आत्मा": 2234,
      "▁आनंद": 2235,
      "▁अप्र": 2236,
      "▁श्रे": 2237,
      "▁निका": 2238,
      "▁शुक": 2239,
      "▁फोन": 2240,
      "▁विधायक": 2241,
      "▁ठा": 2242,
      "कर्": 2243,
      "▁खराब": 2244,
      "ध॰": 2245,
      "▁इंड": 2246,
      "ली,": 2247,
      "लर": 2248,
      "▁इलाज": 2249,
      "क्षक": 2250,
      "▁रहते": 2251,
      "मता": 2252,
      "▁.": 2253,
      "▁सहयोग": 2254,
      "धर": 2255,
      "▁खी": 2256,
      "तियों": 2257,
      "▁हैः": 2258,
      "रिका": 2259,
      "▁सुविधा": 2260,
      "-सा": 2261,
      "ल्पना": 2262,
      "जल": 2263,
      "▁विस्त": 2264,
      "▁विधान": 2265,
      "▁हार": 2266,
      "▁प्रतियोग": 2267,
      "▁मिनट": 2268,
      "▁रिक": 2269,
      "▁अके": 2270,
      "▁पर्याप्त": 2271,
      "्वा": 2272,
      "▁हो।": 2273,
      "▁एंड": 2274,
      "▁एक्स": 2275,
      "▁प्रभावित": 2276,
      "▁माता": 2277,
      "कुल": 2278,
      "▁जाई": 2279,
      "▁फे": 2280,
      "रल": 2281,
      "ी,": 2282,
      "▁सम्": 2283,
      "▁चमक": 2284,
      "▁साथ,": 2285,
      "▁देना": 2286,
      "▁स्थापित": 2287,
      "ियार": 2288,
      "टो": 2289,
      "▁भूमिका": 2290,
      "▁चिल्": 2291,
      "र्च": 2292,
      "▁सरकारी": 2293,
      "▁लागल": 2294,
      "▁दूसरा": 2295,
      "वना": 2296,
      "▁फैस": 2297,
      "▁मंत्र": 2298,
      "ायर": 2299,
      "▁बेर": 2300,
      "▁इंत": 2301,
      "▁हुआ।": 2302,
      "दीप": 2303,
      "ंधे": 2304,
      "▁बिल": 2305,
      "▁पोस्ट": 2306,
      "▁\"अ": 2307,
      "श्चर्य": 2308,
      "▁सेना": 2309,
      "▁परिषद": 2310,
      "▁बदला": 2311,
      "▁आध": 2312,
      "▁माह": 2313,
      "▁त्र": 2314,
      "बार": 2315,
      "▁सन": 2316,
      "▁आश्चर्य": 2317,
      "ज़र": 2318,
      "▁यही": 2319,
      "▁हमने": 2320,
      "▁नैत": 2321,
      "▁रास्ते": 2322,
      "▁नोट": 2323,
      "हें": 2324,
      "मल": 2325,
      "▁शे": 2326,
      "▁शिक्षक": 2327,
      "▁भूमि": 2328,
      "▁अपराध": 2329,
      "▁पहुंचे": 2330,
      "▁बाद,": 2331,
      "▁उचित": 2332,
      "▁सिंह,": 2333,
      "जनों": 2334,
      "▁जाएगी।": 2335,
      "▁चाहे": 2336,
      "साय": 2337,
      "▁आकर्ष": 2338,
      "▁है\",": 2339,
      "▁तला": 2340,
      "▁सुख": 2341,
      "ौल": 2342,
      "▁बॉ": 2343,
      "क्कर": 2344,
      "स्तान": 2345,
      "▁०": 2346,
      "▁वहां": 2347,
      "बाक": 2348,
      "▁निर": 2349,
      "▁अंग्रे": 2350,
      "▁सात": 2351,
      "▁इतनी": 2352,
      "▁समझा": 2353,
      "▁मिस": 2354,
      "▁नियम": 2355,
      "त्त": 2356,
      "▁अमेरिका": 2357,
      "▁करत": 2358,
      "▁लंबे": 2359,
      "धानी": 2360,
      "▁परीक्षा": 2361,
      "▁लौट": 2362,
      "▁मां": 2363,
      "िकल": 2364,
      "▁आपका": 2365,
      "▁किनारे": 2366,
      "पन्न": 2367,
      "▁प्रस्तुत": 2368,
      "देव": 2369,
      "▁पाया": 2370,
      "▁नुक": 2371,
      "▁चेहरे": 2372,
      "▁॥": 2373,
      "▁वही": 2374,
      "▁वर्ण": 2375,
      "डे": 2376,
      "▁फिलिम": 2377,
      "▁भोजन": 2378,
      "▁अधिका": 2379,
      "षि": 2380,
      "सत": 2381,
      "्यो": 2382,
      "क्षम": 2383,
      "ंका": 2384,
      "▁प्रतियोगिता": 2385,
      "▁समाप्त": 2386,
      "▁मुझ": 2387,
      "▁मजबूत": 2388,
      "▁जिसने": 2389,
      "िनी": 2390,
      "▁दर्शन": 2391,
      "किल": 2392,
      "धारित": 2393,
      "▁समी": 2394,
      "▁प्रकृति": 2395,
      "▁सत्य": 2396,
      "ंगे": 2397,
      "स्व": 2398,
      "▁बाबू": 2399,
      "▁हटा": 2400,
      "▁जिम्म": 2401,
      "तः": 2402,
      "▁वार": 2403,
      "▁घोषणा": 2404,
      "करी": 2405,
      "▁धो": 2406,
      "▁तथ": 2407,
      "▁अक्सर": 2408,
      "पहर": 2409,
      "फ्ट": 2410,
      "▁पैर": 2411,
      "▁अध्ययन": 2412,
      "▁प्रबंध": 2413,
      "▁संत": 2414,
      "▁शांति": 2415,
      "▁बाव": 2416,
      "ढ़ी": 2417,
      "▁फेर": 2418,
      "▁किसानों": 2419,
      "▁सुधार": 2420,
      "्रांस": 2421,
      "छा": 2422,
      "▁व्यवहार": 2423,
      "▁बैंक": 2424,
      "▁विदेश": 2425,
      "▁लागू": 2426,
      "स्थिति": 2427,
      "इया": 2428,
      "▁छह": 2429,
      "▁कदम": 2430,
      "देह": 2431,
      "ील": 2432,
      "▁टो": 2433,
      "▁फ्र": 2434,
      "▁नुकसान": 2435,
      "▁दिख": 2436,
      "र्तन": 2437,
      "▁प्राथम": 2438,
      "▁हिला": 2439,
      "थर": 2440,
      "▁तेजी": 2441,
      "▁विशिष्ट": 2442,
      "▁एज": 2443,
      "▁जाला।": 2444,
      "▁तोड़": 2445,
      "▁उल्लेख": 2446,
      "▁उड़": 2447,
      "▁सेहो": 2448,
      "ात": 2449,
      "▁फूल": 2450,
      "▁घाट": 2451,
      "भार": 2452,
      "▁संयुक्त": 2453,
      "▁पश्च": 2454,
      "कुर": 2455,
      "▁विद्य": 2456,
      "फल": 2457,
      "नेट": 2458,
      "▁छि": 2459,
      "▁एही": 2460,
      "▁वीडियो": 2461,
      "▁ग्रे": 2462,
      "▁संके": 2463,
      "गन": 2464,
      "▁जमा": 2465,
      "▁अंक": 2466,
      "मुझे": 2467,
      "०००": 2468,
      "▁बाबा": 2469,
      "▁खोल": 2470,
      "ंडे": 2471,
      "▁छोटा": 2472,
      "▁हुई।": 2473,
      "धिकार": 2474,
      "धारणा": 2475,
      "▁पर्व": 2476,
      "▁नंबर": 2477,
      "▁पाँच": 2478,
      "िकी": 2479,
      "-१": 2480,
      "ेत": 2481,
      "▁मुद्द": 2482,
      "▁वर्षों": 2483,
      "▁सामग्री": 2484,
      "▁क्षेत्रों": 2485,
      "▁छठ": 2486,
      "▁\"क्या": 2487,
      "▁सुरक्षित": 2488,
      "पट": 2489,
      "▁बातची": 2490,
      "▁पशु": 2491,
      "▁प्रतिशत": 2492,
      "ुओं": 2493,
      "▁ए.": 2494,
      "ड़ाई": 2495,
      "▁मश": 2496,
      "ूत": 2497,
      "्यवाद": 2498,
      "यु": 2499,
      "▁सीट": 2500,
      "▁नइखे": 2501,
      "बाइल": 2502,
      "ूंगा": 2503,
      "▁तह": 2504,
      "तक": 2505,
      "ंकन": 2506,
      "▁नस": 2507,
      "▁जरूरत": 2508,
      "▁ति": 2509,
      "ंजन": 2510,
      "▁वास्तविक": 2511,
      "गंज": 2512,
      "▁अंतर्": 2513,
      "ूरी": 2514,
      "▁स्टे": 2515,
      "▁ऑन": 2516,
      "▁प्रभु": 2517,
      "्क": 2518,
      "▁लगल": 2519,
      "▁अजी": 2520,
      "▁शुक्र": 2521,
      "ॉप": 2522,
      "यू": 2523,
      "सित": 2524,
      "सिक": 2525,
      "▁बातचीत": 2526,
      "ंतर": 2527,
      "ड्": 2528,
      "▁अगले": 2529,
      "▁पृथ": 2530,
      "ंडी": 2531,
      "▁हाद": 2532,
      "▁सत": 2533,
      "▁लिखा": 2534,
      "▁ऋ": 2535,
      "▁२१": 2536,
      "▁ट्रेन": 2537,
      "▁मनुष": 2538,
      "▁व्याख्या": 2539,
      "▁ग्रामीणों": 2540,
      "▁५०": 2541,
      "▁वज": 2542,
      "केट": 2543,
      "▁सूर्": 2544,
      "▁हो,": 2545,
      "थिली": 2546,
      "▁रखते": 2547,
      "बोध": 2548,
      "▁बेच": 2549,
      "▁बुध": 2550,
      "▁मैदान": 2551,
      "▁देल": 2552,
      "▁राह": 2553,
      "▁गरीब": 2554,
      "शील": 2555,
      "▁एस.": 2556,
      "▁हमला": 2557,
      "▁टुक": 2558,
      "्रेस": 2559,
      "ैल": 2560,
      "▁मंगल": 2561,
      "▁सार्व": 2562,
      "▁जात": 2563,
      "ावली": 2564,
      "▁बावजूद": 2565,
      "▁इस्ते": 2566,
      "लाइन": 2567,
      "▁प्रभारी": 2568,
      "सभ": 2569,
      "▁रक्षा": 2570,
      "▁शि": 2571,
      "▁घूम": 2572,
      "▁शांत": 2573,
      "▁तरीका": 2574,
      "▁लगाने": 2575,
      "ंसी": 2576,
      "ंगी": 2577,
      "श्न": 2578,
      "ँह": 2579,
      "▁पाल": 2580,
      "▁सप": 2581,
      "▁दोपहर": 2582,
      "▁जहा": 2583,
      "▁पौ": 2584,
      "▁चुका": 2585,
      "▁कहता": 2586,
      "▁गैर": 2587,
      "▁२४": 2588,
      "गरी": 2589,
      "▁कोय": 2590,
      "कृतिक": 2591,
      "▁तु": 2592,
      "प्ताह": 2593,
      "▁आर्थ": 2594,
      "▁सक्षम": 2595,
      "▁पड़े": 2596,
      "वाही": 2597,
      "ीं": 2598,
      "▁रुक": 2599,
      "ई,": 2600,
      "▁इस्तेमाल": 2601,
      "▁अगस्त": 2602,
      "▁पट": 2603,
      "▁सवार": 2604,
      "▁गौ": 2605,
      "ोत्": 2606,
      "दर": 2607,
      "▁पहला": 2608,
      "▁नागर": 2609,
      "▁खरीद": 2610,
      "▁रेलवे": 2611,
      "शाली": 2612,
      "ट्र": 2613,
      "चि": 2614,
      "ेलन": 2615,
      "थी": 2616,
      "▁राष्ट्रपति": 2617,
      "ारोह": 2618,
      "▁कन": 2619,
      "▁भेजा": 2620,
      "▁भर्ती": 2621,
      "▁बेटे": 2622,
      "▁रहता": 2623,
      "▁हॉ": 2624,
      "र्ज": 2625,
      "शनी": 2626,
      "▁केर": 2627,
      "▁कराया": 2628,
      "▁नियंत्र": 2629,
      "▁खींच": 2630,
      "▁नो": 2631,
      "▁अवधारणा": 2632,
      "▁कल्पना": 2633,
      "स्ट्र": 2634,
      "▁तय": 2635,
      "वह": 2636,
      "▁सें": 2637,
      "▁री": 2638,
      "▁दिस": 2639,
      "▁स्टेशन": 2640,
      "▁मरी": 2641,
      "ो,": 2642,
      "▁आठ": 2643,
      "▁जम": 2644,
      "▁वन": 2645,
      "▁मैथिली": 2646,
      "▁जानता": 2647,
      "्राइ": 2648,
      "▁आता": 2649,
      "▁कथा": 2650,
      "▁हाई": 2651,
      "▁सचिव": 2652,
      "▁स्वागत": 2653,
      "▁उत्सा": 2654,
      "बाजी": 2655,
      "क्का": 2656,
      "▁समारोह": 2657,
      "▁रोग": 2658,
      "ञ्": 2659,
      "▁गई,": 2660,
      "▁गोल": 2661,
      "▁दक्षिण": 2662,
      "▁किलो": 2663,
      "▁बजाय": 2664,
      "िया,": 2665,
      "▁मुस्कुरा": 2666,
      "्रमण": 2667,
      "्टर": 2668,
      "▁काहे": 2669,
      "▁इंतजार": 2670,
      "▁राशि": 2671,
      "▁संदेह": 2672,
      "▁अख": 2673,
      "▁आखिर": 2674,
      "▁पीड़ित": 2675,
      "सिल": 2676,
      "▁हिसा": 2677,
      "▁गंगा": 2678,
      "मती": 2679,
      "▁प्ले": 2680,
      "▁सां": 2681,
      "▁कार्यों": 2682,
      "विध": 2683,
      "रामद": 2684,
      "▁चिल्ला": 2685,
      "▁चेहरा": 2686,
      "▁मोबाइल": 2687,
      "▁खेत": 2688,
      "▁चाहिए,": 2689,
      "जनक": 2690,
      "▁रास्ता": 2691,
      "▁उद्य": 2692,
      "▁खि": 2693,
      "▁समर्थन": 2694,
      "▁पी.": 2695,
      "▁निर्धारित": 2696,
      "▁चुके": 2697,
      "▁शन": 2698,
      "णाली": 2699,
      "भाल": 2700,
      "▁वजह": 2701,
      "▁केस": 2702,
      "▁प्रशिक्ष": 2703,
      "▁अनुमान": 2704,
      "क्शन": 2705,
      "▁उनमें": 2706,
      "▁मुदा": 2707,
      "-म": 2708,
      "ई।": 2709,
      "▁संगठन": 2710,
      "ावल": 2711,
      "▁\"आप": 2712,
      "▁बहु": 2713,
      "▁मीडिया": 2714,
      "▁हिसाब": 2715,
      "▁मोह": 2716,
      "▁शान": 2717,
      "ूद": 2718,
      "▁किताब": 2719,
      "▁पूर्": 2720,
      "ष्टि": 2721,
      "▁परिजनों": 2722,
      "तने": 2723,
      "िक्": 2724,
      "किंग": 2725,
      "हान": 2726,
      "▁नार": 2727,
      "▁दिवस": 2728,
      "गणना": 2729,
      "▁काे": 2730,
      "▁खंड": 2731,
      "▁शनिवार": 2732,
      "▁दश": 2733,
      "चक": 2734,
      "▁बनल": 2735,
      "श्वर": 2736,
      "हू": 2737,
      "यो": 2738,
      "▁तत्": 2739,
      "्रह": 2740,
      "▁सी.": 2741,
      "▁खड़े": 2742,
      "▁न्या": 2743,
      "उंड": 2744,
      "▁दुख": 2745,
      "ियल": 2746,
      "▁पृथ्वी": 2747,
      "▁लाइन": 2748,
      "▁इतने": 2749,
      "▁थाने": 2750,
      "▁आई.": 2751,
      "▁दर्द": 2752,
      "चारी": 2753,
      "▁चुप": 2754,
      "पालिका": 2755,
      "▁मौसम": 2756,
      "▁बुला": 2757,
      "एच": 2758,
      "▁फेंक": 2759,
      "▁धन्यवाद": 2760,
      "▁आश": 2761,
      "र्जा": 2762,
      "▁गुजर": 2763,
      "▁प्रतिनिध": 2764,
      "▁विधानसभा": 2765,
      "▁दिशा": 2766,
      "▁जिन्हें": 2767,
      "▁चली": 2768,
      "▁राजनीतिक": 2769,
      "▁विवाद": 2770,
      "ुका": 2771,
      "िसर": 2772,
      "▁गए,": 2773,
      "▁उपस्थित": 2774,
      "▁फैसला": 2775,
      "एन": 2776,
      "▁वाहन": 2777,
      "▁बानी": 2778,
      "▁वालों": 2779,
      "ाराज": 2780,
      "▁शुक्रवार": 2781,
      "तृत्व": 2782,
      "▁प्राकृतिक": 2783,
      "लाब": 2784,
      "ंकर": 2785,
      "▁आते": 2786,
      "▁पटना": 2787,
      "▁है.": 2788,
      "पल": 2789,
      "▁पुराने": 2790,
      "▁आजु": 2791,
      "▁दौड़": 2792,
      "माग": 2793,
      "जित": 2794,
      "▁फु": 2795,
      "▁चोर": 2796,
      "▁गोली": 2797,
      "▁हव": 2798,
      "▁दोष": 2799,
      "▁निरी": 2800,
      "▁देकर": 2801,
      "▁थीं।": 2802,
      "▁करें,": 2803,
      "▁सजा": 2804,
      "▁नहीं।": 2805,
      "▁विजय": 2806,
      "▁मिथ": 2807,
      "▁मूल्य": 2808,
      "▁शो": 2809,
      "पीट": 2810,
      "▁अमा": 2811,
      "▁सहायता": 2812,
      "▁लै": 2813,
      "▁पैसे": 2814,
      "र्प": 2815,
      "संग": 2816,
      "▁हिंदी": 2817,
      "▁इंटर": 2818,
      "▁ठाकुर": 2819,
      "▁खाना": 2820,
      "अइ": 2821,
      "▁हमर": 2822,
      "▁लेते": 2823,
      "▁खास": 2824,
      "▁डो": 2825,
      "्राम": 2826,
      "शे": 2827,
      "▁उतर": 2828,
      "▁न्याया": 2829,
      "मैन": 2830,
      "्हा": 2831,
      "▁सुनी": 2832,
      "▁संकेत": 2833,
      "ड्ड": 2834,
      "स्कर": 2835,
      "▁आइल": 2836,
      "▁मुड़": 2837,
      "▁भो": 2838,
      "म,": 2839,
      "रु": 2840,
      "िक्स": 2841,
      "▁पालन": 2842,
      "▁दरवाजे": 2843,
      "▁कोर्ट": 2844,
      "▁पैदा": 2845,
      "▁चुकी": 2846,
      "▁उपा": 2847,
      "▁आइ": 2848,
      "▁हूं।": 2849,
      "▁बुरा": 2850,
      "▁पहुंचा": 2851,
      "▁तकनी": 2852,
      "ज्ञानिक": 2853,
      "ँचा": 2854,
      "▁थीं": 2855,
      "▁जवन": 2856,
      "▁सप्ताह": 2857,
      "▁निजी": 2858,
      "सों": 2859,
      "▁शब्दों": 2860,
      "▁अधिकांश": 2861,
      "▁सफल": 2862,
      "▁माय": 2863,
      "▁गर्म": 2864,
      "▁पूछता": 2865,
      "्टन": 2866,
      "सरा": 2867,
      "▁देखना": 2868,
      "ेश्वर": 2869,
      "सिद्ध": 2870,
      "▁आँखों": 2871,
      "▁सामना": 2872,
      "▁जुलाई": 2873,
      "क्षर": 2874,
      "▁प्रथम": 2875,
      "श्किल": 2876,
      "री,": 2877,
      "▁अस्त": 2878,
      "▁उनसे": 2879,
      "▁कविता": 2880,
      "▁विभा": 2881,
      "ड़ियों": 2882,
      "▁जॉन": 2883,
      "▁होंगे": 2884,
      "▁पदा": 2885,
      "▁सज": 2886,
      "▁नेतृत्व": 2887,
      "▁विस्तार": 2888,
      "राव": 2889,
      "▁क्व": 2890,
      "▁नज़र": 2891,
      "▁मुँह": 2892,
      "▁स्वर": 2893,
      "▁नाँव": 2894,
      "▁नम": 2895,
      "▁मौका": 2896,
      "▁कब्": 2897,
      "▁जनगणना": 2898,
      "▁अश": 2899,
      "▁ई.": 2900,
      "▁झू": 2901,
      "दु": 2902,
      "ंधी": 2903,
      "▁समेत": 2904,
      "माश": 2905,
      "▁छथि": 2906,
      "▁संस्कृति": 2907,
      "▁भवन": 2908,
      "▁दिमाग": 2909,
      "लेट": 2910,
      "्सा": 2911,
      "▁विशाल": 2912,
      "▁२२": 2913,
      "▁धारा": 2914,
      "▁टिप": 2915,
      "▁क्रम": 2916,
      "▁डिग्री": 2917,
      "▁सूची": 2918,
      "▁मुश्किल": 2919,
      "▁शासन": 2920,
      "▁टूट": 2921,
      "ालय": 2922,
      "▁भुग": 2923,
      "▁उत्पाद": 2924,
      "▁पुरस्कार": 2925,
      "▁हमनी": 2926,
      "ज़ा": 2927,
      "▁जितना": 2928,
      "िस्ट": 2929,
      "बित": 2930,
      "▁पेड़": 2931,
      "ॉट": 2932,
      "तल": 2933,
      "▁सभा": 2934,
      "▁तुम्ह": 2935,
      "▁नसध॰": 2936,
      "▁मामलों": 2937,
      "खर": 2938,
      "▁मुख्या": 2939,
      "▁प्रणाली": 2940,
      "▁दावा": 2941,
      "ोलन": 2942,
      "राह": 2943,
      "▁यून": 2944,
      "ैर": 2945,
      "▁ग्रह": 2946,
      "▁निगम": 2947,
      "गा,": 2948,
      "▁नैतिक": 2949,
      "▁दब": 2950,
      "▁पव": 2951,
      "▁विल": 2952,
      "▁आँखें": 2953,
      "▁पहुंची": 2954,
      "▁कार्यकर्": 2955,
      "▁उम्र": 2956,
      "▁क्षमता": 2957,
      "बद्ध": 2958,
      "▁आवेदन": 2959,
      "▁है?\"": 2960,
      "ंटी": 2961,
      "धारण": 2962,
      "▁अमेरिक": 2963,
      "▁जुड़": 2964,
      "▁बइ": 2965,
      "▁जिनके": 2966,
      "▁दिने": 2967,
      "▁लंबा": 2968,
      "कृ": 2969,
      "▁ब्रा": 2970,
      "▁जाति": 2971,
      "▁कार्ड": 2972,
      "▁चिंता": 2973,
      "▁\",": 2974,
      "जोर": 2975,
      "▁सम्मानित": 2976,
      "जु": 2977,
      "▁कपड़े": 2978,
      "▁रविवार": 2979,
      "▁चीन": 2980,
      "मीटर": 2981,
      "नु": 2982,
      "▁मार्च": 2983,
      "ैया": 2984,
      "▁पाए": 2985,
      "नी,": 2986,
      "▁बरामद": 2987,
      "▁\"यह": 2988,
      "ष्ट्रीय": 2989,
      "▁परिवर्तन": 2990,
      "कन": 2991,
      "▁मुख्यालय": 2992,
      "▁इंग": 2993,
      "▁चर्च": 2994,
      "भाष": 2995,
      "▁हल्": 2996,
      "▁सूर्य": 2997,
      "िरी": 2998,
      "▁कमा": 2999,
      "▁प्रेरित": 3000,
      "केश": 3001,
      "घर": 3002,
      "▁बोर्ड": 3003,
      "▁मध": 3004,
      "▁शिविर": 3005,
      "▁सम्मेलन": 3006,
      "्मिक": 3007,
      "▁देखे": 3008,
      "▁प्रव": 3009,
      "▁निरा": 3010,
      "▁आर्थिक": 3011,
      "▁दूरी": 3012,
      "ैध": 3013,
      "स्तर": 3014,
      "▁जून": 3015,
      "▁अजीब": 3016,
      "▁निश": 3017,
      "▁लड़ाई": 3018,
      "▁बनी": 3019,
      "ृह": 3020,
      "▁गर": 3021,
      "▁पुस्तक": 3022,
      "▁दीवार": 3023,
      "▁देती": 3024,
      "▁बच्चा": 3025,
      "▁\"मुझे": 3026,
      "▁बिक": 3027,
      "▁चरण": 3028,
      "▁रै": 3029,
      "▁बिंद": 3030,
      "▁विकसित": 3031,
      "ॉर्ड": 3032,
      "▁प्रार": 3033,
      "▁एच": 3034,
      "▁भी,": 3035,
      "▁पर्य": 3036,
      "▁बत": 3037,
      "थिन": 3038,
      "▁साइ": 3039,
      "▁हमारा": 3040,
      "▁कले": 3041,
      "▁विवरण": 3042,
      "▁अग्र": 3043,
      "फो": 3044,
      "▁लक": 3045,
      "▁होख": 3046,
      "चीन": 3047,
      "▁भुगतान": 3048,
      "▁ढेर": 3049,
      "-प्र": 3050,
      "स्यों": 3051,
      "▁कृषि": 3052,
      "▁जाओ": 3053,
      "▁मगही": 3054,
      "▁बिल्": 3055,
      "ानु": 3056,
      "वर्": 3057,
      "▁राजनीति": 3058,
      "▁तलाश": 3059,
      "▁मारपीट": 3060,
      "डर": 3061,
      "▁सफाई": 3062,
      "▁मुक्त": 3063,
      "▁था;": 3064,
      "▁मेड": 3065,
      "▁समुद्र": 3066,
      "▁तथ्य": 3067,
      "्रिय": 3068,
      "▁तट": 3069,
      "▁रहा।": 3070,
      "▁मात्रा": 3071,
      "▁एश": 3072,
      "▁हिस्से": 3073,
      "▁सके।": 3074,
      "क्ता": 3075,
      "श्म": 3076,
      "ोद": 3077,
      "▁गुस्": 3078,
      "▁आशा": 3079,
      "▁मंडल": 3080,
      "▁कभी-क": 3081,
      "▁संस्थान": 3082,
      "पुरा": 3083,
      "▁मिलल": 3084,
      "▁बौ": 3085,
      "▁दया": 3086,
      "▁तल": 3087,
      "जनिक": 3088,
      "▁=": 3089,
      "रात": 3090,
      "▁जागर": 3091,
      "▁हिन्दी": 3092,
      "ढ़े": 3093,
      "वाँ": 3094,
      "ंदन": 3095,
      "▁सलाह": 3096,
      "▁बाड़ी": 3097,
      "▁एम.": 3098,
      "ियोजना": 3099,
      "▁हथियार": 3100,
      "▁दीपावली": 3101,
      "▁उनकर": 3102,
      "भू": 3103,
      "▁कराने": 3104,
      "▁मंच": 3105,
      "▁चीजों": 3106,
      "ितीय": 3107,
      "▁मू": 3108,
      "▁सुनि": 3109,
      "▁सफेद": 3110,
      "ौन": 3111,
      "▁जानवर": 3112,
      "ंघ": 3113,
      "▁आकार": 3114,
      "▁जीवित": 3115,
      "दास": 3116,
      "▁सोम": 3117,
      "▁साथे": 3118,
      "▁लेखक": 3119,
      "▁परियोजना": 3120,
      "▁पुरुषों": 3121,
      "▁मुक": 3122,
      "▁खान": 3123,
      "▁रानी": 3124,
      "▁मिश्र": 3125,
      "ंगे।": 3126,
      "▁आरोपियों": 3127,
      "▁कुमार,": 3128,
      "▁प्रजा": 3129,
      "▁सहायक": 3130,
      "▁गुरुवार": 3131,
      "▁जिन्होंने": 3132,
      "▁देशों": 3133,
      "▁हिमा": 3134,
      "हले": 3135,
      "▁विपरी": 3136,
      "▁इनके": 3137,
      "▁तैयारी": 3138,
      "▁अवैध": 3139,
      "▁साथी": 3140,
      "▁खून": 3141,
      "▁पड़ी": 3142,
      "▁अल्": 3143,
      "▁दोसर": 3144,
      "▁बदलाव": 3145,
      "ायण": 3146,
      "▁यूरो": 3147,
      "▁कैं": 3148,
      "▁संस्था": 3149,
      "▁सार्वजनिक": 3150,
      "▁!": 3151,
      "स्कृत": 3152,
      "धीरे": 3153,
      "▁जिसकी": 3154,
      "च्चा": 3155,
      "▁पढ़ीं": 3156,
      "▁फुट": 3157,
      "▁उल": 3158,
      "▁गइ": 3159,
      "ंडल": 3160,
      "▁जाएँ": 3161,
      "चार्य": 3162,
      "▁छोट": 3163,
      "▁कितना": 3164,
      "▁टै": 3165,
      "रिक्त": 3166,
      "▁चौध": 3167,
      "-आ": 3168,
      "▁साव": 3169,
      "▁खुला": 3170,
      "▁संबोध": 3171,
      "▁वाह": 3172,
      "▁कभी-कभी": 3173,
      "ॉम": 3174,
      "▁जला": 3175,
      "▁जाए।": 3176,
      "▁प्रतिक": 3177,
      "▁टू": 3178,
      "ब्ल्यू": 3179,
      "▁बइठ": 3180,
      "▁भौतिक": 3181,
      "▁गुज": 3182,
      "▁दृष्टि": 3183,
      "केँ": 3184,
      "▁अस्तित्व": 3185,
      "वारी": 3186,
      "▁लक्ष्य": 3187,
      "▁]": 3188,
      "▁दान": 3189,
      "▁अनुर": 3190,
      "▁व्यक्तिगत": 3191,
      "▁फल": 3192,
      "▁कर्मचार": 3193,
      "वें": 3194,
      "कीय": 3195,
      "▁सीधे": 3196,
      "ोप": 3197,
      "▁अतिरिक्त": 3198,
      "▁अध्याय": 3199,
      "▁हालाँकि,": 3200,
      "▁जंगल": 3201,
      "ताबिक": 3202,
      "३०": 3203,
      "▁जॉ": 3204,
      "▁१९९": 3205,
      "▁डाय": 3206,
      "▁सदस्यों": 3207,
      "नगर": 3208,
      "ुनिक": 3209,
      "कुमार": 3210,
      "▁कर्मचारी": 3211,
      "▁कऽ": 3212,
      "▁बगल": 3213,
      "जो": 3214,
      "▁अउर": 3215,
      "▁गलती": 3216,
      "ग्": 3217,
      "ज्ज": 3218,
      "ुप": 3219,
      "▁हुन": 3220,
      "▁आवाज": 3221,
      "▁झुक": 3222,
      "▁कइले": 3223,
      "▁मॉडल": 3224,
      "▁हिंद": 3225,
      "▁हाथों": 3226,
      "▁अने": 3227,
      "▁काउ": 3228,
      "▁बेल": 3229,
      "▁अमा॰": 3230,
      "ेप": 3231,
      "सिंह": 3232,
      "▁पूछताछ": 3233,
      "▁भरा": 3234,
      "▁एक्": 3235,
      "▁परेशानी": 3236,
      "िना": 3237,
      "▁सोने": 3238,
      "▁भूल": 3239,
      "▁मुझसे": 3240,
      "▁आह": 3241,
      "▁मिथिला": 3242,
      "▁केन्द्र": 3243,
      "▁आल": 3244,
      "▁योग्य": 3245,
      "▁धम": 3246,
      "▁हासिल": 3247,
      "▁फॉ": 3248,
      "▁दृश्य": 3249,
      "▁प्रकाशित": 3250,
      "-धीरे": 3251,
      "▁जेकरा": 3252,
      "ंथ": 3253,
      "▁प्रखंड": 3254,
      "▁स्थापना": 3255,
      "▁२६": 3256,
      "▁जू": 3257,
      "-साथ": 3258,
      "▁बदमाश": 3259,
      "▁सफलता": 3260,
      "▁तेल": 3261,
      "▁विकल्प": 3262,
      "▁युव": 3263,
      "▁बहन": 3264,
      "▁मैच": 3265,
      "▁चिकित्सा": 3266,
      "▁अंग्रेजी": 3267,
      "▁स्म": 3268,
      "इयों": 3269,
      "▁चोट": 3270,
      "▁टिप्प": 3271,
      "▁पहिल": 3272,
      "▁धार्मिक": 3273,
      "▁चयन": 3274,
      "▁रोशनी": 3275,
      "▁ताप": 3276,
      "ीप": 3277,
      "▁राजस्थान": 3278,
      "▁छात्रों": 3279,
      "▁मल": 3280,
      "नाम": 3281,
      "▁उपकरण": 3282,
      "▁कहने": 3283,
      "▁व्यापक": 3284,
      "▁आधारित": 3285,
      "ौती": 3286,
      "▁तार": 3287,
      "▁सांसद": 3288,
      "▁धीरे-धीरे": 3289,
      "िटल": 3290,
      "▁पृष्ठ": 3291,
      "▁पंजा": 3292,
      "▁प्रमाण": 3293,
      "▁लागत": 3294,
      "▁मालिक": 3295,
      "▁प्राचीन": 3296,
      "▁इनमें": 3297,
      "बु": 3298,
      "सरों": 3299,
      "▁विचारों": 3300,
      "▁लिहल": 3301,
      "५०": 3302,
      "▁४०": 3303,
      "▁कर्मचारियों": 3304,
      "▁टिक": 3305,
      "▁देखा।": 3306,
      "क्ख": 3307,
      "▁पवित्र": 3308,
      "▁ब्रह": 3309,
      "▁समुदाय": 3310,
      "▁घरे": 3311,
      "▁२३": 3312,
      "तनी": 3313,
      "ानों": 3314,
      "▁सेंट": 3315,
      "झाव": 3316,
      "▁वेब": 3317,
      "स्म": 3318,
      "▁पूछा।": 3319,
      "चित्र": 3320,
      "▁हालत": 3321,
      "▁डी.": 3322,
      "▁चालक": 3323,
      "▁चंद्र": 3324,
      "▁आंद": 3325,
      "नाक": 3326,
      "▁परम": 3327,
      "▁शाह": 3328,
      "▁प्रिय": 3329,
      "▁व्यवसाय": 3330,
      "बाल": 3331,
      "▁उद्": 3332,
      "▁आधा": 3333,
      "▁रही।": 3334,
      "▁देलक": 3335,
      "▁केंद": 3336,
      "▁धारणा": 3337,
      "▁गोर": 3338,
      "बूर": 3339,
      "मार्ट": 3340,
      "▁शानदार": 3341,
      "▁संघर्ष": 3342,
      "▁\"क": 3343,
      "▁साबित": 3344,
      "नियर": 3345,
      "▁अलावा,": 3346,
      "ेदार": 3347,
      "▁खड़ी": 3348,
      "ियस": 3349,
      "▁वायर": 3350,
      "▁सूर": 3351,
      "▁बुधवार": 3352,
      "▁गइल।": 3353,
      "▁करऽ": 3354,
      "▁जहाज": 3355,
      "▁राजधानी": 3356,
      "ूनी": 3357,
      "▁जरूरी": 3358,
      "▁प्रसिद्ध": 3359,
      "▁निरीक्षण": 3360,
      "▁२७": 3361,
      "▁मनो": 3362,
      "▁छात्रा": 3363,
      "▁होंगे।": 3364,
      "▁प्रार्थ": 3365,
      "कू": 3366,
      "▁कलाकार": 3367,
      "▁मजबूर": 3368,
      "▁जनवरी": 3369,
      "▁विद्यार्थ": 3370,
      "▁एफ.": 3371,
      "ट,": 3372,
      "▁परिसर": 3373,
      "▁खत्म": 3374,
      "▁आराम": 3375,
      "दल": 3376,
      "▁नाव": 3377,
      "▁दिला": 3378,
      "▁संय": 3379,
      "▁१००": 3380,
      "▁श्रृ": 3381,
      "▁संरचना": 3382,
      "▁बनाई": 3383,
      "▁ठे": 3384,
      "▁जवना": 3385,
      "ले।": 3386,
      "▁कृष्ण": 3387,
      "▁फो": 3388,
      "▁समाधान": 3389,
      "▁किश": 3390,
      "▁दवा": 3391,
      "भाषा": 3392,
      "शनल": 3393,
      "्पन": 3394,
      "▁होगा,": 3395,
      "▁सन्": 3396,
      "▁मनुष्य": 3397,
      "टेन": 3398,
      "विड": 3399,
      "▁निम": 3400,
      "▁लें": 3401,
      "▁बनने": 3402,
      "▁२८": 3403,
      "म्मत": 3404,
      "▁केंद्रीय": 3405,
      "▁निर्भर": 3406,
      "ऊंगा": 3407,
      "▁रेखा": 3408,
      "▁बोली": 3409,
      "▁स्वतंत्रता": 3410,
      "▁गांधी": 3411,
      "▁अमेरिकी": 3412,
      "▁स्वामी": 3413,
      "▁ट्रै": 3414,
      "▁श्रीमती": 3415,
      "▁पत्थर": 3416,
      "▁उत्साह": 3417,
      "▁सभसे": 3418,
      "▁बंग": 3419,
      "▁हट": 3420,
      "▁लड़के": 3421,
      "▁पॉ": 3422,
      "▁है!": 3423,
      "▁करैत": 3424,
      "▁पड़ता": 3425,
      "▁रुपये": 3426,
      "▁सत्र": 3427,
      "▁खाने": 3428,
      "▁फ्ल": 3429,
      "▁बांध": 3430,
      "ायी": 3431,
      "▁आर.": 3432,
      "द्व": 3433,
      "पि": 3434,
      "▁खर्च": 3435,
      "▁आओ": 3436,
      "्याण": 3437,
      "र्जी": 3438,
      "▁जाल": 3439,
      "▁सीख": 3440,
      "▁स्थल": 3441,
      "-२": 3442,
      "▁हुए।": 3443,
      "▁कठोर": 3444,
      "▁जाकर": 3445,
      "त्ती": 3446,
      "▁दोस्तों": 3447,
      "▁मकान": 3448,
      "▁जंग": 3449,
      "▁सुझाव": 3450,
      "▁आती": 3451,
      "नू": 3452,
      "▁साथ-साथ": 3453,
      "्भ": 3454,
      "गड़": 3455,
      "▁प्रतिनिधित्व": 3456,
      "▁उपस्थिति": 3457,
      "▁आसान": 3458,
      "▁बीमार": 3459,
      "ंपरा": 3460,
      "काब": 3461,
      "▁गणेश": 3462,
      "▁काग": 3463,
      "▁राहत": 3464,
      "▁अशोक": 3465,
      "▁लकड़ी": 3466,
      "▁आंख": 3467,
      "▁ड्र": 3468,
      "▁नौकरी": 3469,
      "▁अप्पन": 3470,
      "▁टी.": 3471,
      "▁पहल": 3472,
      "▁पदार्थ": 3473,
      "▁घुस": 3474,
      "सील": 3475,
      "▁देखा,": 3476,
      "▁सड़": 3477,
      "▁केँ": 3478,
      "▁प्रश्न": 3479,
      "ग्रह": 3480,
      "लाम": 3481,
      "▁दरवाजा": 3482,
      "सद": 3483,
      "▁सीएम": 3484,
      "▁तऽ": 3485,
      "▁इक": 3486,
      "▁शोध": 3487,
      "▁सिने": 3488,
      "वै": 3489,
      "▁लूट": 3490,
      "वंबर": 3491,
      "▁घोषित": 3492,
      "▁शीर्ष": 3493,
      "▁राख": 3494,
      "▁एकटा": 3495,
      "▁प्रार्थना": 3496,
      "रेट": 3497,
      "ेंडर": 3498,
      "िमा": 3499,
      "▁योगदान": 3500,
      "लैंड": 3501,
      "▁संबोधित": 3502,
      "▁पाकि": 3503,
      "मात्र": 3504,
      "▁मनोर": 3505,
      "▁खूब": 3506,
      "▁पत": 3507,
      "न्हीं": 3508,
      "▁भाग्य": 3509,
      "वां": 3510,
      "शाला": 3511,
      "▁बिया": 3512,
      "कालीन": 3513,
      "दिन": 3514,
      "▁संपत्ति": 3515,
      "▁आसानी": 3516,
      "▁ऊर्जा": 3517,
      "▁उद्योग": 3518,
      "▁हद": 3519,
      "▁क्षण": 3520,
      "▁पेट": 3521,
      "▁करनी": 3522,
      "▁सारा": 3523,
      "▁ब्लॉक": 3524,
      "▁आधुनिक": 3525,
      "▁उत्पन्न": 3526,
      "िग": 3527,
      "▁अंधे": 3528,
      "▁पश्चिम": 3529,
      "▁नवंबर": 3530,
      "▁दूध": 3531,
      "▁हुआ,": 3532,
      "▁क्यू": 3533,
      "क्र": 3534,
      "ेय": 3535,
      "▁परंपरा": 3536,
      "हीन": 3537,
      "▁कर्": 3538,
      "लेकिन": 3539,
      "▁हेल": 3540,
      "▁प्रतीत": 3541,
      "ूपी": 3542,
      "▁हित": 3543,
      "▁काले": 3544,
      "▁तत्व": 3545,
      "▁रण": 3546,
      "▁के,": 3547,
      "▁बैठे": 3548,
      "्षद": 3549,
      "▁तस्वी": 3550,
      "्ति": 3551,
      "▁मूर्ख": 3552,
      "कीन": 3553,
      "पो": 3554,
      "▁प्रशिक्षण": 3555,
      "रस": 3556,
      "वऽ": 3557,
      "ईं": 3558,
      "▁एसडी": 3559,
      "▁डूब": 3560,
      "▁प्ला": 3561,
      "▁खुल": 3562,
      "ंकी": 3563,
      "▁जिनमें": 3564,
      "▁चरित्र": 3565,
      "▁गयी": 3566,
      "▁कल्याण": 3567,
      "▁स्थानों": 3568,
      "▁गी": 3569,
      "जीत": 3570,
      "▁स्टी": 3571,
      "▁हरिया": 3572,
      "▁मृतक": 3573,
      "▁संचालन": 3574,
      "▁भरो": 3575,
      "▁मीटर": 3576,
      "▁एक्ट": 3577,
      "थे": 3578,
      "▁तापमान": 3579,
      "▁गायब": 3580,
      "ङ्": 3581,
      "▁गहरा": 3582,
      "▁निष्क": 3583,
      "वस्था": 3584,
      "▁नाटक": 3585,
      "▁बोले-": 3586,
      "▁कहे": 3587,
      "▁नामा": 3588,
      "▁पढ़ाई": 3589,
      "▁लंबी": 3590,
      "▁देखकर": 3591,
      "▁एन.": 3592,
      "▁कोनो": 3593,
      "▁पार्षद": 3594,
      "▁लेना": 3595,
      "▁बाढ़": 3596,
      "▁चू": 3597,
      "▁घरों": 3598,
      "▁लाइ": 3599,
      "▁बुद्धि": 3600,
      "ोत्सव": 3601,
      "▁आब": 3602,
      "▁गौर": 3603,
      "▁इरा": 3604,
      "▁लगाए": 3605,
      "▁उत्पादन": 3606,
      "▁आंदोलन": 3607,
      "हाल": 3608,
      "▁और,": 3609,
      "वीर": 3610,
      "्हि": 3611,
      "▁प्रचार": 3612,
      "दो": 3613,
      "▁वैज्ञानिक": 3614,
      "▁भले": 3615,
      "ू,": 3616,
      "▁है-": 3617,
      "▁पुरानी": 3618,
      "▁गृह": 3619,
      "▁३१": 3620,
      "ंखला": 3621,
      "तरे": 3622,
      "▁श्रेणी": 3623,
      "▁सारी": 3624,
      "▁करूँ": 3625,
      "▁धा": 3626,
      "▁छाप": 3627,
      "▁जाइत": 3628,
      "▁सका": 3629,
      "▁सिव": 3630,
      "▁जर्म": 3631,
      "▁प्रारंभ": 3632,
      "▁प्ल": 3633,
      "▁एयर": 3634,
      "▁होटल": 3635,
      "▁नरे": 3636,
      "▁चिन": 3637,
      "▁प्राथमिक": 3638,
      "▁काली": 3639,
      "ार्ट": 3640,
      "शित": 3641,
      "▁बिंदु": 3642,
      "▁रहती": 3643,
      "म्स": 3644,
      "्मा": 3645,
      "▁जाये": 3646,
      "▁चुना": 3647,
      "ल्ला": 3648,
      "▁हूं,": 3649,
      "▁फरार": 3650,
      "क्षेप": 3651,
      "▁संपर्क": 3652,
      "▁गेलइ": 3653,
      "▁तहसील": 3654,
      "▁फसल": 3655,
      "▁अन्त": 3656,
      "▁तभी": 3657,
      "▁अकेले": 3658,
      "▁आत": 3659,
      "▁शुभ": 3660,
      "▁सुनिश्चित": 3661,
      "▁दबा": 3662,
      "▁हमार": 3663,
      "▁प्रतिक्रिया": 3664,
      "घाटन": 3665,
      "▁पंजाब": 3666,
      "▁कए": 3667,
      "एफ": 3668,
      "▁सारे": 3669,
      "▁दार्": 3670,
      "▁एक-द": 3671,
      "▁माने": 3672,
      "▁मेडिकल": 3673,
      "▁गेट": 3674,
      "▁ड्राइ": 3675,
      "▁कमजोर": 3676,
      "स्कृतिक": 3677,
      "▁जैन": 3678,
      "▁फोट": 3679,
      "ट्ठा": 3680,
      "कर्ता": 3681,
      "▁रहले": 3682,
      "न्स": 3683,
      "▁मिट्टी": 3684,
      "▁अंतर्गत": 3685,
      "-वि": 3686,
      "▁टाइ": 3687,
      "▁ट्रक": 3688,
      "▁धु": 3689,
      "▁हरा": 3690,
      "गति": 3691,
      "▁२०११": 3692,
      "▁थोड़ी": 3693,
      "▁द्वीप": 3694,
      "▁अज्ञ": 3695,
      "▁सोमवार": 3696,
      "पात": 3697,
      "▁किछ": 3698,
      "▁ऑनलाइन": 3699,
      "िमी": 3700,
      "▁केहू": 3701,
      "▁पदाधिकारी": 3702,
      "▁नियंत्रण": 3703,
      "▁परे": 3704,
      "वले": 3705,
      "▁रम": 3706,
      "▁लाने": 3707,
      "काई": 3708,
      "▁रखी": 3709,
      "▁कक्षा": 3710,
      "▁हैंः": 3711,
      "▁मानल": 3712,
      "▁जाव": 3713,
      "ृत्ति": 3714,
      "▁पैसा": 3715,
      "▁सिल": 3716,
      "प्रिय": 3717,
      "-फ": 3718,
      "▁शिकार": 3719,
      "्यूटर": 3720,
      "▁निष्": 3721,
      "▁चौक": 3722,
      "▁आयोग": 3723,
      "▁वर्णन": 3724,
      "▁उपन": 3725,
      "▁निर्वा": 3726,
      "▁खर": 3727,
      "▁जैसी": 3728,
      "▁जुड़े": 3729,
      "तौर": 3730,
      "▁इंग्ल": 3731,
      "▁आखिरकार": 3732,
      "▁चलने": 3733,
      "वाला": 3734,
      "▁द्वार": 3735,
      "बत": 3736,
      "ंडर": 3737,
      "▁चार्": 3738,
      "सीय": 3739,
      "▁मशीन": 3740,
      "▁मिलता": 3741,
      "स्करण": 3742,
      "▁सदर": 3743,
      "▁चट्ट": 3744,
      "▁जागरूक": 3745,
      "▁मोड़": 3746,
      "▁मेज": 3747,
      "▁तँ": 3748,
      "सास": 3749,
      "फ्": 3750,
      "▁नीति": 3751,
      "बादी": 3752,
      "▁जइसे": 3753,
      "▁पर्यावरण": 3754,
      "▁अका": 3755,
      "बर्ट": 3756,
      "▁ईसा": 3757,
      "▁हक": 3758,
      "डो": 3759,
      "▁पंड": 3760,
      "टेड": 3761,
      "्रेट": 3762,
      "▁आलो": 3763,
      "▁होत": 3764,
      "▁रखे": 3765,
      "▁लोगन": 3766,
      "▁साध": 3767,
      "▁हैं;": 3768,
      "▁होल": 3769,
      "▁दार्शन": 3770,
      "द्योग": 3771,
      "▁फाय": 3772,
      "▁कोल": 3773,
      "▁इहाँ": 3774,
      "▁\"और": 3775,
      "▁२९": 3776,
      "▁प्रतिभा": 3777,
      "▁माई": 3778,
      "क्सी": 3779,
      "घटना": 3780,
      "▁दास": 3781,
      "▁एकमात्र": 3782,
      "▁दम": 3783,
      "▁गड़": 3784,
      "▁विवे": 3785,
      "-श": 3786,
      "त्सा": 3787,
      "पूर्वक": 3788,
      "पथ": 3789,
      "▁कस": 3790,
      "▁मुकद": 3791,
      "▁अभिव": 3792,
      "▁सिनेमा": 3793,
      "ों,": 3794,
      "▁मई": 3795,
      "पक": 3796,
      "▁आशी": 3797,
      "वहार": 3798,
      "▁उपचार": 3799,
      "दक": 3800,
      "ब्र": 3801,
      "▁यूपी": 3802,
      "▁मनाया": 3803,
      "▁खाते": 3804,
      "िकेट": 3805,
      "▁तीनों": 3806,
      "▁पार्क": 3807,
      "▁छुट": 3808,
      "▁गुप्ता": 3809,
      "▁शाखा": 3810,
      "▁वीर": 3811,
      "▁राजकुमार": 3812,
      "▁भि": 3813,
      "▁चलता": 3814,
      "▁साझा": 3815,
      "▁युग": 3816,
      "स्टम": 3817,
      "▁पड़ल": 3818,
      "▁पीछा": 3819,
      "▁दृढ़": 3820,
      "तिया": 3821,
      "वनी": 3822,
      "रा,": 3823,
      "▁बाहरी": 3824,
      "▁श्रम": 3825,
      "कर,": 3826,
      "▁छल।": 3827,
      "▁बरा": 3828,
      "▁किलोमीटर": 3829,
      "नर": 3830,
      "▁मुह": 3831,
      "ंदगी": 3832,
      "▁कोरो": 3833,
      "▁मं": 3834,
      "▁प्रसार": 3835,
      "▁निवास": 3836,
      "▁रिकॉर्ड": 3837,
      "▁चौधरी": 3838,
      "▁देस": 3839,
      "▁मंत्रालय": 3840,
      "वो": 3841,
      "राय": 3842,
      "▁मान्यता": 3843,
      "▁शिक्षकों": 3844,
      "▁छी।": 3845,
      "लु": 3846,
      "▁तारी": 3847,
      "▁आखिरी": 3848,
      "▁श्रृंखला": 3849,
      "-उ": 3850,
      "▁लेकिन,": 3851,
      "▁दुश्म": 3852,
      "▁क्लब": 3853,
      "▁जिल": 3854,
      "टिल": 3855,
      "▁आदर्श": 3856,
      "नात": 3857,
      "▁दें।": 3858,
      "▁जिम्मेदार": 3859,
      "▁हरि": 3860,
      "▁श्रद्ध": 3861,
      "स्टी": 3862,
      "▁झार": 3863,
      "न्ना": 3864,
      "▁हड़": 3865,
      "ूड": 3866,
      "▁ढा": 3867,
      "▁प्रतिनिधि": 3868,
      "▁हाँ,": 3869,
      "पंच": 3870,
      "▁टक्कर": 3871,
      "▁युवाओं": 3872,
      "▁संवे": 3873,
      "▁हिल": 3874,
      "▁देखभाल": 3875,
      "▁मानसिक": 3876,
      "▁पार्": 3877,
      "▁शहरी": 3878,
      "▁हवे।": 3879,
      "▁वोट": 3880,
      "▁प्रि": 3881,
      "▁सागर": 3882,
      "▁अमर": 3883,
      "स्थाप": 3884,
      "▁रहस्य": 3885,
      "▁सिन": 3886,
      "त।": 3887,
      "जिए": 3888,
      "न्न": 3889,
      "▁वितरण": 3890,
      "▁मुला": 3891,
      "ूर्ति": 3892,
      "▁रउ": 3893,
      "▁बाप": 3894,
      "▁डब्ल्यू": 3895,
      "▁फैला": 3896,
      "▁पहले,": 3897,
      "▁उतार": 3898,
      "▁आवास": 3899,
      "ट्स": 3900,
      "▁एक्सप": 3901,
      "▁अना": 3902,
      "ड़की": 3903,
      "▁फरवरी": 3904,
      "▁मछ": 3905,
      "तीश": 3906,
      "▁मित्र": 3907,
      "▁कलेक्टर": 3908,
      "▁भरी": 3909,
      "▁बाँ": 3910,
      "▁सौं": 3911,
      "शोध": 3912,
      "▁इंडिया": 3913,
      "▁कही": 3914,
      "▁संदेश": 3915,
      "▁दर्श": 3916,
      "▁कठिन": 3917,
      "▁बिल्कुल": 3918,
      "▁साँ": 3919,
      "▁एकरे": 3920,
      "▁वैसे": 3921,
      "▁रखें": 3922,
      "▁अदाल": 3923,
      "▁उसमें": 3924,
      "▁तिव": 3925,
      "ुड": 3926,
      "▁निभा": 3927,
      "ढ़ा": 3928,
      "विक": 3929,
      "दूर": 3930,
      "▁इश": 3931,
      "▁पहन": 3932,
      "▁मनोज": 3933,
      "▁करेगा": 3934,
      "▁सक्रिय": 3935,
      "▁कीमत": 3936,
      "▁सांस्कृतिक": 3937,
      "▁उत्तरी": 3938,
      "▁वरि": 3939,
      "▁अत्य": 3940,
      "▁अज": 3941,
      "गी,": 3942,
      "ूसरे": 3943,
      "ेंसी": 3944,
      "लेषण": 3945,
      "▁तस्वीर": 3946,
      "▁नागरिक": 3947,
      "▁वृद्धि": 3948,
      "▁कं": 3949,
      "▁टिप्पणी": 3950,
      "तिहासिक": 3951,
      "▁हाउस": 3952,
      "▁झूठ": 3953,
      "श्ते": 3954,
      "▁लड़का": 3955,
      "्ना": 3956,
      "उँ": 3957,
      "▁खेती": 3958,
      "▁नष्ट": 3959,
      "घु": 3960,
      "▁समीक्षा": 3961,
      "▁देखल": 3962,
      "▁रखना": 3963,
      "▁पाप": 3964,
      "▁संतु": 3965,
      "▁उम्मीदवार": 3966,
      "▁मानक": 3967,
      "▁बचाव": 3968,
      "▁असा": 3969,
      "▁रक्त": 3970,
      "ुल्क": 3971,
      "▁तिवारी": 3972,
      "▁आमतौर": 3973,
      "ह,": 3974,
      "▁पीठ": 3975,
      ":१": 3976,
      "▁प्रगति": 3977,
      "ार्म": 3978,
      "ली।": 3979,
      "▁मांस": 3980,
      "▁एल.": 3981,
      "▁भयान": 3982,
      "▁टटका": 3983,
      "लेन": 3984,
      "्वान": 3985,
      ",०००": 3986,
      "▁संस्करण": 3987,
      "▁लाया": 3988,
      "▁कक्ष": 3989,
      "▁उत्स": 3990,
      "टि": 3991,
      "▁रखता": 3992,
      "▁रोजगार": 3993,
      "▁दुर्घटना": 3994,
      "▁सहज": 3995,
      "्याम": 3996,
      "श्मी": 3997,
      "▁लगा।": 3998,
      "रान": 3999,
      "▁बी.": 4000,
      "▁हरियाणा": 4001,
      "▁राहुल": 4002,
      "▁कहलन": 4003,
      "-एक": 4004,
      "▁चीजें": 4005,
      "▁अभिव्य": 4006,
      "ोजन": 4007,
      "▁सख": 4008,
      "▁पकड़ा": 4009,
      "▁सिक": 4010,
      "त्कार": 4011,
      "▁कैल": 4012,
      "▁झु": 4013,
      "▁प्रशंसा": 4014,
      "▁रज": 4015,
      "▁स्वर्ग": 4016,
      "▁वरिष्ठ": 4017,
      "▁पहि": 4018,
      "▁अध्यक्षता": 4019,
      "▁संजय": 4020,
      "▁अँ": 4021,
      "▁अपमान": 4022,
      "▁अवधि": 4023,
      "▁दिलच": 4024,
      "▁समर्प": 4025,
      "▁प्रबंधन": 4026,
      "▁न्यायालय": 4027,
      "▁ज्ञापन": 4028,
      "▁स्थिर": 4029,
      "▁चिंत": 4030,
      "पत": 4031,
      "▁निर्मा": 4032,
      "▁गले": 4033,
      "▁ओहि": 4034,
      "▁ली।": 4035,
      "निक": 4036,
      "चय": 4037,
      "▁तिर": 4038,
      "▁चीनी": 4039,
      "▁कर्त": 4040,
      "▁चुकल": 4041,
      "▁कोरोना": 4042,
      "▁आंत": 4043,
      "▁बिता": 4044,
      "▁आकाश": 4045,
      "्रेड": 4046,
      "▁कुर्": 4047,
      "▁परिचित": 4048,
      "▁हिंदू": 4049,
      "▁श्रद्धाल": 4050,
      "▁काज": 4051,
      "▁इंद": 4052,
      "्रीन": 4053,
      "▁औरत": 4054,
      "▁भयानक": 4055,
      "-च": 4056,
      "स्को": 4057,
      "▁कॉल": 4058,
      "रेशन": 4059,
      "▁सड़कों": 4060,
      "▁कइसे": 4061,
      "▁साहब": 4062,
      "▁कथ": 4063,
      "▁आजा": 4064,
      "▁कैम": 4065,
      "▁सेक": 4066,
      "▁देखें": 4067,
      "हुँ": 4068,
      "▁देखता": 4069,
      "▁रहना": 4070,
      "▁शोर": 4071,
      "शास्त्र": 4072,
      "▁बिस्तर": 4073,
      "▁अवि": 4074,
      "▁अनुसार,": 4075,
      "▁उद्घाटन": 4076,
      "▁इंजी": 4077,
      "▁राज्यों": 4078,
      "▁ग्रहण": 4079,
      "▁विपरीत": 4080,
      "▁फ्रांस": 4081,
      "▁निम्न": 4082,
      "▁कच": 4083,
      "▁उतना": 4084,
      "२२": 4085,
      "▁घन": 4086,
      "▁स्वाद": 4087,
      "ानि": 4088,
      "▁खुले": 4089,
      "▁प्रकट": 4090,
      "▁जता": 4091,
      "स्ल": 4092,
      "▁संस्कार": 4093,
      "▁चेता": 4094,
      "▁एसपी": 4095,
      "▁हैं?\"": 4096,
      "▁जवान": 4097,
      "▁बीमारी": 4098,
      "ष्ट्र": 4099,
      "▁पत्रिका": 4100,
      "▁संग्रह": 4101,
      "▁प्रतिमा": 4102,
      "▁लोकप्रिय": 4103,
      "दय": 4104,
      "कारा": 4105,
      "▁३५": 4106,
      "पेट": 4107,
      "▁प्लेट": 4108,
      "▁अज्ञात": 4109,
      "▁एका": 4110,
      "▁सस": 4111,
      "▁समृ": 4112,
      "▁पुराना": 4113,
      "▁लड़क": 4114,
      "▁गठन": 4115,
      "▁दर्शा": 4116,
      "▁केंद्रित": 4117,
      "▁जेकर": 4118,
      "ेदारी": 4119,
      "बन्ध": 4120,
      "▁हादसे": 4121,
      "▁पाकिस्तान": 4122,
      "▁रोकने": 4123,
      "-पिता": 4124,
      "▁वर्मा": 4125,
      "ारीरिक": 4126,
      "रासत": 4127,
      "टिंग": 4128,
      "कात": 4129,
      "यत": 4130,
      "▁हालांकि,": 4131,
      "▁अपील": 4132,
      "▁लेता": 4133,
      "▁सिटी": 4134,
      "▁शुद्ध": 4135,
      "लिख": 4136,
      "हूँ": 4137,
      "भाग्य": 4138,
      "नेस": 4139,
      "▁चाही": 4140,
      "▁इंग्लैंड": 4141,
      "▁जाम": 4142,
      "▁डै": 4143,
      "▁धान": 4144,
      "▁बचाने": 4145,
      "▁बयान": 4146,
      "▁शैली": 4147,
      "ज,": 4148,
      "▁नेट": 4149,
      "▁वाक": 4150,
      "▁अतिथि": 4151,
      "▁नरेंद्र": 4152,
      "▁सच्चा": 4153,
      "▁लापर": 4154,
      "देशक": 4155,
      "▁इसलिए,": 4156,
      "▁भय": 4157,
      "र्द": 4158,
      "▁२०२२": 4159,
      "▁यकीन": 4160,
      "लेक्ट": 4161,
      "▁ध्व": 4162,
      "▁वेल": 4163,
      "▁समाचार": 4164,
      "▁गठ": 4165,
      "ए।": 4166,
      "▁अंज": 4167,
      "▁नामांकन": 4168,
      "ेन्द्र": 4169,
      "▁निवेश": 4170,
      "▁थीं,": 4171,
      "▁इस्": 4172,
      "▁१९८": 4173,
      "▁शर्त": 4174,
      "▁मिशन": 4175,
      "▁नियमित": 4176,
      "▁तालाब": 4177,
      "▁कुर": 4178,
      "▁वर्षीय": 4179,
      "▁गोद": 4180,
      "▁लिया,": 4181,
      "▁शारीरिक": 4182,
      "▁सुत": 4183,
      "िड": 4184,
      "▁गुस्से": 4185,
      "▁मानते": 4186,
      "▁मिलते": 4187,
      "▁आयु": 4188,
      "▁गाम": 4189,
      "▁ऐतिहासिक": 4190,
      "▁चिकित्स": 4191,
      "▁पच": 4192,
      "▁ड्यू": 4193,
      "▁बंध": 4194,
      "▁बजा": 4195,
      "▁नञ्": 4196,
      "ज़ी": 4197,
      "▁ईमान": 4198,
      "▁दूसरों": 4199,
      "▁बीस": 4200,
      "▁लिखल": 4201,
      "▁विशेषता": 4202,
      "▁देखी": 4203,
      "▁संरक्षण": 4204,
      "रन": 4205,
      "▁ट्रांस": 4206,
      "▁पढ़ा": 4207,
      "्राष्ट्रीय": 4208,
      "िफ": 4209,
      "▁मारने": 4210,
      "डिंग": 4211,
      "▁नक": 4212,
      "▁प्रोत्सा": 4213,
      "▁माता-पिता": 4214,
      "▁इनकार": 4215,
      "▁निष्कर्ष": 4216,
      "▁समस्याओं": 4217,
      "▁एक-दूसरे": 4218,
      "▁नही": 4219,
      "▁लखन": 4220,
      "▁जाँच": 4221,
      "▁अहम": 4222,
      "स्वर": 4223,
      "▁धमकी": 4224,
      "▁आबादी": 4225,
      "एँ,": 4226,
      "▁मेला": 4227,
      "संगत": 4228,
      "▁रवि": 4229,
      "▁गार्ड": 4230,
      "▁अद्भ": 4231,
      "-व": 4232,
      "पुर,": 4233,
      "▁बेसी": 4234,
      "▁बाड़न": 4235,
      "▁भरे": 4236,
      "▁रुचि": 4237,
      "▁वादा": 4238,
      "▁मंडी": 4239,
      "▁अउरी": 4240,
      "▁बोला": 4241,
      "ताप": 4242,
      "▁परीक्षण": 4243,
      "▁ऑप": 4244,
      "ृत्य": 4245,
      "▁क्ला": 4246,
      "▁होइत": 4247,
      "▁मुताबिक": 4248,
      "ड्डी": 4249,
      "कम": 4250,
      "▁तरह,": 4251,
      "▁कंप्यूटर": 4252,
      "गि": 4253,
      "▁बढ़ावा": 4254,
      "▁मनोरंजन": 4255,
      "इकिल": 4256,
      "▁६०": 4257,
      "▁सुपर": 4258,
      "▁डॉलर": 4259,
      "ेक्षा": 4260,
      "अप": 4261,
      "ीकरण": 4262,
      "▁विदेशी": 4263,
      "▁भरोसा": 4264,
      "▁भ्र": 4265,
      "पान": 4266,
      "▁पहिला": 4267,
      "दारों": 4268,
      "▁सपना": 4269,
      "ताब्द": 4270,
      "▁स्रो": 4271,
      "▁सर्वे": 4272,
      "▁संवि": 4273,
      "▁निकट": 4274,
      "सब": 4275,
      "▁मिलकर": 4276,
      "▁नारायण": 4277,
      "ेड़": 4278,
      "पद": 4279,
      "▁चैन": 4280,
      "▁अभिन": 4281,
      "▁अद्भुत": 4282,
      "▁लक्ष्मी": 4283,
      "▁शौ": 4284,
      "▁समझौ": 4285,
      "ेलिया": 4286,
      "▁पहुंचे।": 4287,
      "▁मक": 4288,
      "▁पोल": 4289,
      "▁दूंगा": 4290,
      "▁अं": 4291,
      "▁किरा": 4292,
      "▁लगाई": 4293,
      "▁मुकाब": 4294,
      "▁इन्ह": 4295,
      "ंगिक": 4296,
      "▁बैठा": 4297,
      "▁फायर": 4298,
      "लीं": 4299,
      "▁उपाय": 4300,
      "हारी": 4301,
      "▁अदालत": 4302,
      "▁शास": 4303,
      "▁अनि": 4304,
      "▁सहमत": 4305,
      "▁ईश्वर": 4306,
      "▁कमे": 4307,
      "परिक": 4308,
      "▁संबंधी": 4309,
      "▁बारह": 4310,
      "▁\"वह": 4311,
      "▁सौंप": 4312,
      "▁निरंतर": 4313,
      "▁रहीं": 4314,
      "▁अनुक": 4315,
      "▁एशिया": 4316,
      "▁हाे": 4317,
      "▁गिरा": 4318,
      "▁यी": 4319,
      "▁पाई": 4320,
      "▁सरल": 4321,
      "▁दशक": 4322,
      "▁हंस": 4323,
      "▁रस": 4324,
      "▁शताब्द": 4325,
      "▁रहु": 4326,
      "▁आर्": 4327,
      "▁राजेश": 4328,
      "▁...": 4329,
      "▁दार्शनिक": 4330,
      "दियों": 4331,
      "''": 4332,
      "▁नवी": 4333,
      "टिया": 4334,
      "▁डिप": 4335,
      "▁शर्मा,": 4336,
      "ड़ा,": 4337,
      "▁संवाद": 4338,
      "▁बढ़ने": 4339,
      "▁बें": 4340,
      "▁होनी": 4341,
      "लिक": 4342,
      "▁ज़्यादा": 4343,
      "▁मंगलवार": 4344,
      "बै": 4345,
      "▁लइ": 4346,
      "▁संभावित": 4347,
      "ंत्रित": 4348,
      "▁तारीख": 4349,
      "जान": 4350,
      "साइट": 4351,
      "▁धोखा": 4352,
      "▁रहेगा।": 4353,
      "▁पागल": 4354,
      "▁बताते": 4355,
      "▁फ्रा": 4356,
      "वानी": 4357,
      "....": 4358,
      "▁जब्त": 4359,
      "दुर": 4360,
      "▁हॉल": 4361,
      "▁कोत": 4362,
      "▁कहाः": 4363,
      "▁पहाड़ी": 4364,
      "▁परिस्थित": 4365,
      "▁डेटा": 4366,
      "ट्टा": 4367,
      "▁विलियम": 4368,
      "▁बढ़े": 4369,
      "▁दीपक": 4370,
      "▁दिवाली": 4371,
      "चारिक": 4372,
      "नाश": 4373,
      "▁इंजीनियर": 4374,
      "▁जइसन": 4375,
      "श्मीर": 4376,
      "▁लगाकर": 4377,
      "▁टिकट": 4378,
      "▁पटा": 4379,
      "ॉस": 4380,
      "रू": 4381,
      "▁बढ़ाने": 4382,
      "▁घास": 4383,
      "▁विधि": 4384,
      "▁गह": 4385,
      "▁पहुँचा": 4386,
      "▁बा,": 4387,
      "▁इलाके": 4388,
      "टाई": 4389,
      "▁पें": 4390,
      "▁मेहन": 4391,
      "▁जिम्मेदारी": 4392,
      "▁अभिय": 4393,
      "▁बाकि": 4394,
      "▁आकर्षित": 4395,
      "▁अछि,": 4396,
      "▁मेह": 4397,
      "▁असं": 4398,
      "▁भास्कर": 4399,
      "मय": 4400,
      "▁१९७": 4401,
      "▁क्रिया": 4402,
      "▁बनावल": 4403,
      "काम": 4404,
      "▁संसा": 4405,
      "▁छैक": 4406,
      "▁भव्य": 4407,
      "▁एके": 4408,
      "▁व्यक्तियों": 4409,
      "▁जानल": 4410,
      "▁बौद्ध": 4411,
      "▁मस्": 4412,
      "▁उठाया": 4413,
      "▁स्मृति": 4414,
      "▁विवाह": 4415,
      "▁घुमा": 4416,
      "ेंद": 4417,
      "▁कएल": 4418,
      "▁रिली": 4419,
      "▁बराबर": 4420,
      "▁संतोष": 4421,
      "▁ख़": 4422,
      "▁छत": 4423,
      "ग्ध": 4424,
      "▁मोटर": 4425,
      "▁जाएंगे।": 4426,
      "▁दिए।": 4427,
      "▁बनाना": 4428,
      "ैसे": 4429,
      "▁पहाड़": 4430,
      "▁सोना": 4431,
      "▁चेतावनी": 4432,
      "कृष्ट": 4433,
      "▁गर्मी": 4434,
      "▁अभ्यास": 4435,
      "▁ब्रिट": 4436,
      "▁तलवार": 4437,
      "▁चाहती": 4438,
      "▁डाक": 4439,
      "▁राजी": 4440,
      "▁हादसा": 4441,
      "▁अरे": 4442,
      "▁चक्कर": 4443,
      "▁दबाव": 4444,
      "▁सिस्टम": 4445,
      "▁सूरज": 4446,
      "▁आंतरिक": 4447,
      "▁चै": 4448,
      "▁रन": 4449,
      "▁मोहन": 4450,
      "ौली": 4451,
      "▁आकर": 4452,
      "▁बुझ": 4453,
      "्मण": 4454,
      "▁फोटो": 4455,
      "▁मारा": 4456,
      "त्रियों": 4457,
      "▁आधे": 4458,
      "ंजी": 4459,
      "▁खिड़की": 4460,
      "▁लगने": 4461,
      "▁नियुक्त": 4462,
      "▁ब्रि": 4463,
      "▁करेगा।": 4464,
      "▁ओही": 4465,
      "▁लिये": 4466,
      "▁संकल्प": 4467,
      "स्ट्री": 4468,
      "▁द्वितीय": 4469,
      "नि।": 4470,
      "▁सीमित": 4471,
      "▁रोमा": 4472,
      "▁उपयुक्त": 4473,
      "▁विश्लेषण": 4474,
      "▁अह": 4475,
      "ंती": 4476,
      "▁घटनाओं": 4477,
      "▁घोड़े": 4478,
      "▁कड़ी": 4479,
      "▁होला।": 4480,
      "▁कुमारी": 4481,
      "▁प्रोफे": 4482,
      "▁जैक": 4483,
      "▁आया।": 4484,
      "ुरी": 4485,
      "▁लेके": 4486,
      "▁बहुते": 4487,
      "अल": 4488,
      "▁पॉल": 4489,
      "टीक": 4490,
      "-न": 4491,
      "▁जयपुर": 4492,
      "▁छिपा": 4493,
      "▁उत्तरा": 4494,
      "▁फाइन": 4495,
      "मार्टम": 4496,
      "▁छाया": 4497,
      "▁इशारा": 4498,
      "▁/": 4499,
      "▁पैरों": 4500,
      "ले,": 4501,
      "▁ऊंच": 4502,
      "▁अनेक": 4503,
      "▁दिसंबर": 4504,
      "िरा": 4505,
      "▁ओक": 4506,
      "▁फैल": 4507,
      "▁मिश्रा": 4508,
      "विंद": 4509,
      "▁यात्री": 4510,
      "▁समझने": 4511,
      "यार": 4512,
      "▁अभिव्यक्ति": 4513,
      "▁चो": 4514,
      "▁गिन": 4515,
      "जीव": 4516,
      "▁मनी": 4517,
      "▁बाधा": 4518,
      "▁विमान": 4519,
      "▁डू": 4520,
      "▁मात्र": 4521,
      "▁उत्सुक": 4522,
      "ंगन": 4523,
      "▁\"न": 4524,
      "▁बनावे": 4525,
      "▁जिलों": 4526,
      "▁मुकदमा": 4527,
      "▁ला।": 4528,
      "त्ते": 4529,
      "१०": 4530,
      "▁सरपंच": 4531,
      "▁नॉ": 4532,
      "▁गाँ": 4533,
      "▁उत्कृष्ट": 4534,
      "▁तन": 4535,
      "▁अनिवार": 4536,
      "▁माइक": 4537,
      "कृति": 4538,
      "▁लिंग": 4539,
      "स्वरूप": 4540,
      "▁अत": 4541,
      "वाणी": 4542,
      "▁जिनगी": 4543,
      "▁महाराज": 4544,
      "▁इमार": 4545,
      "▁सेंटर": 4546,
      "-र": 4547,
      "▁असम": 4548,
      "▁दाय": 4549,
      "▁कि,": 4550,
      "▁कहा-": 4551,
      "▁मील": 4552,
      "▁स्टा": 4553,
      "बरा": 4554,
      "▁मानना": 4555,
      "फु": 4556,
      "र्जन": 4557,
      "▁देंगे": 4558,
      "▁निशान": 4559,
      "▁पोस्टमार्टम": 4560,
      "ोलॉ": 4561,
      "▁उर्फ": 4562,
      "▁सोन": 4563,
      "-२०": 4564,
      "▁आलोचना": 4565,
      "▁आपूर्ति": 4566,
      "▁कूद": 4567,
      "▁नाराज": 4568,
      "▁कराई": 4569,
      "▁योजनाओं": 4570,
      "▁नाग": 4571,
      "▁दस्ता": 4572,
      "न्त": 4573,
      "▁\"उस": 4574,
      "गाह": 4575,
      "▁सोचने": 4576,
      "▁एजेंट": 4577,
      "▁पढ़ने": 4578,
      "▁सोशल": 4579,
      "▁तैनात": 4580,
      "▁अभिने": 4581,
      "▁चाय": 4582,
      "मिल": 4583,
      "▁क्रा": 4584,
      "▁क्": 4585,
      "▁हरे": 4586,
      "▁मास्टर": 4587,
      "▁पुष्टि": 4588,
      "मेर": 4589,
      "ज्ञा": 4590,
      "▁आतंक": 4591,
      "▁बुल": 4592,
      "▁विस": 4593,
      "▁रहे,": 4594,
      "शिप": 4595,
      "▁सिद्ध": 4596,
      "▁नौकर": 4597,
      "लै": 4598,
      "ित,": 4599,
      "▁वार्": 4600,
      "▁काला": 4601,
      "▁धूम": 4602,
      "▁शर्म": 4603,
      "▁तक,": 4604,
      "▁पात्र": 4605,
      "▁इंच": 4606,
      "▁जनरल": 4607,
      "▁अप्रैल": 4608,
      "▁हम्म": 4609,
      "▁क्वा": 4610,
      "▁३२": 4611,
      "पू": 4612,
      "त्तर": 4613,
      "▁अधी": 4614,
      "▁संशोध": 4615,
      "▁था?": 4616,
      "वंश": 4617,
      "▁भोजपुर": 4618,
      "▁मजदूर": 4619,
      "▁कस्": 4620,
      "▁एल्": 4621,
      "▁रवाना": 4622,
      "▁देवे": 4623,
      "▁दुल": 4624,
      "▁ताकत": 4625,
      "▁बनाकर": 4626,
      "▁यादव,": 4627,
      "▁ठहरा": 4628,
      "इला": 4629,
      "▁गुप्त": 4630,
      "▁परिचय": 4631,
      "▁डिजा": 4632,
      "▁जाग": 4633,
      "▁महारा": 4634,
      "स्टे": 4635,
      "▁पाइ": 4636,
      "▁दक्ख": 4637,
      "वासन": 4638,
      "▁अंतर्राष्ट्रीय": 4639,
      "▁देह": 4640,
      "त्रि": 4641,
      "▁जिनका": 4642,
      "जारी": 4643,
      "▁ताल": 4644,
      "्स,": 4645,
      "▁उद्ध": 4646,
      "▁कैप": 4647,
      "▁स्तरी": 4648,
      "ज्": 4649,
      "▁छू": 4650,
      "जात": 4651,
      "▁वाहनों": 4652,
      "▁लापरवाही": 4653,
      "▁कानूनी": 4654,
      "▁मरीजों": 4655,
      "खों": 4656,
      "▁अट": 4657,
      "▁खतरा": 4658,
      "म्मा": 4659,
      "▁वेबसाइट": 4660,
      "▁नर्स": 4661,
      "▁इधर": 4662,
      "११": 4663,
      "▁ब्रे": 4664,
      "मंड": 4665,
      "ूली": 4666,
      "▁पेर": 4667,
      "▁भक्त": 4668,
      "▁आपत्ति": 4669,
      "▁स्वच्छ": 4670,
      "▁गतिविध": 4671,
      "ड़िया": 4672,
      "▁कॉलो": 4673,
      "नतम": 4674,
      "▁निच": 4675,
      "४०": 4676,
      "▁हवाई": 4677,
      "▁दोहरा": 4678,
      "▁भाषण": 4679,
      "▁झारखंड": 4680,
      "ारू": 4681,
      "▁कारो": 4682,
      "▁मैक": 4683,
      "▁विविध": 4684,
      "▁उपाध्यक्ष": 4685,
      "ारों": 4686,
      "ान्त": 4687,
      "▁कबो": 4688,
      "▁को,": 4689,
      "▁आना": 4690,
      "▁कुश": 4691,
      "▁संस्कृत": 4692,
      "▁वस्तुओं": 4693,
      "▁फायदा": 4694,
      "▁पटेल": 4695,
      "▁होंठ": 4696,
      "▁इहे": 4697,
      "▁बनाते": 4698,
      "▁मजा": 4699,
      "▁मास": 4700,
      "▁मुर": 4701,
      "▁लहर": 4702,
      "▁यीशु": 4703,
      "▁बुरी": 4704,
      "▁लव": 4705,
      "▁स्तरीय": 4706,
      "▁गुजरात": 4707,
      "▁प्रोफेसर": 4708,
      "णियों": 4709,
      "▁कब्जा": 4710,
      "▁बारी": 4711,
      "▁सभे": 4712,
      "▁नेशनल": 4713,
      "▁रिश्ते": 4714,
      "▁बाह": 4715,
      "▁सहमति": 4716,
      "▁मिला।": 4717,
      "▁सगरी": 4718,
      "▁ऊँ": 4719,
      "▁करि": 4720,
      "▁शताब्दी": 4721,
      "▁महीना": 4722,
      "▁इकट्ठा": 4723,
      "▁मेहर": 4724,
      "▁\"त": 4725,
      "▁संबंधों": 4726,
      "▁फीट": 4727,
      "▁नृत्य": 4728,
      "▁संसार": 4729,
      "▁तूँ": 4730,
      "▁प्रारंभिक": 4731,
      "▁खिलाड़ी": 4732,
      "▁यानी": 4733,
      "लिखित": 4734,
      "▁चिर": 4735,
      "▁फुस": 4736,
      "▁होई": 4737,
      "▁अमित": 4738,
      "ंठ": 4739,
      "▁क्रिकेट": 4740,
      "▁छु": 4741,
      "▁सैनिक": 4742,
      "र्चा": 4743,
      "ैनिक": 4744,
      "▁त्या": 4745,
      "▁कार्यकर्ताओं": 4746,
      "ह्न": 4747,
      "▁कारणों": 4748,
      "▁व्र": 4749,
      "यात": 4750,
      "▁निपट": 4751,
      "▁सेट": 4752,
      "▁वाप": 4753,
      "▁खाती": 4754,
      "▁चाचा": 4755,
      "▁ब्रिटिश": 4756,
      "बॉल": 4757,
      "▁कम्प": 4758,
      "▁चतु": 4759,
      "▁जोग": 4760,
      "▁मरीज": 4761,
      "वेज": 4762,
      "▁निकाला": 4763,
      "▁जी.": 4764,
      "▁नामक": 4765,
      "▁हिमाचल": 4766,
      "▁+": 4767,
      "▁दिखाया": 4768,
      "▁हैं.": 4769,
      "▁मारे": 4770,
      "▁गुणव": 4771,
      "▁कुर्सी": 4772,
      "्यात्म": 4773,
      "▁किशोर": 4774,
      "▁खिल": 4775,
      "▁भारती": 4776,
      "लेश": 4777,
      "▁निकलने": 4778,
      "▁संसद": 4779,
      "निर्": 4780,
      "▁बढ": 4781,
      "▁सराह": 4782,
      "▁लिए।": 4783,
      "▁गहरी": 4784,
      "▁बदले": 4785,
      "स्की": 4786,
      "ूरत": 4787,
      "▁वंश": 4788,
      "▁उदय": 4789,
      "▁यूरोप": 4790,
      "▁लखनऊ": 4791,
      "▁बुझा": 4792,
      "ियत": 4793,
      "▁स्कूलों": 4794,
      "▁हिम्मत": 4795,
      "▁कितनी": 4796,
      "▁छाती": 4797,
      "▁--": 4798,
      "▁कप्ता": 4799,
      "▁हेतु": 4800,
      "अर": 4801,
      "▁आपसे": 4802,
      "▁मोर": 4803,
      "▁दोषी": 4804,
      "▁अहाँ": 4805,
      "▁धरती": 4806,
      "▁तइ": 4807,
      "▁कोतवाली": 4808,
      "▁नेताओं": 4809,
      "▁टकरा": 4810,
      "▁पीएम": 4811,
      "स्फ": 4812,
      "▁कमेटी": 4813,
      "म्र": 4814,
      "▁टेल": 4815,
      "▁लंदन": 4816,
      "▁अधीन": 4817,
      "▁बान": 4818,
      "▁जादू": 4819,
      "▁मुद्दा": 4820,
      "फिक": 4821,
      "ित्य": 4822,
      "▁उपन्यास": 4823,
      "जुर्ग": 4824,
      "▁किछु": 4825,
      "नन": 4826,
      "▁तोरा": 4827,
      "▁पत्रकार": 4828,
      "▁विफल": 4829,
      "▁हस्ता": 4830,
      "तीत": 4831,
      "डम": 4832,
      "दृ": 4833,
      "▁तत्काल": 4834,
      "▁अवस्था": 4835,
      "डि": 4836,
      "▁हैं\",": 4837,
      "▁बंगाल": 4838,
      "▁रूस": 4839,
      "▁घुट": 4840,
      "▁ओल": 4841,
      "▁अय": 4842,
      "▁तंत्र": 4843,
      "▁बर्फ": 4844,
      "▁३३": 4845,
      "▁बहस": 4846,
      "▁भंड": 4847,
      "क्ष्य": 4848,
      "ोव": 4849,
      "▁उपहार": 4850,
      "लीय": 4851,
      "▁पाठक": 4852,
      "▁चांदी": 4853,
      "▁रसो": 4854,
      "▁परा": 4855,
      "▁इट": 4856,
      "▁प्राइ": 4857,
      "▁बाग": 4858,
      "▁\"हम": 4859,
      "▁अरब": 4860,
      "▁मगर": 4861,
      "▁ओवर": 4862,
      "▁पहने": 4863,
      "▁वारदा": 4864,
      "▁अल॰": 4865,
      "▁अस्थ": 4866,
      "▁आश्": 4867,
      "▁>": 4868,
      "▁मस": 4869,
      "▁एसडीएम": 4870,
      "▁संचालित": 4871,
      "▁शास्त्र": 4872,
      "▁ढूं": 4873,
      "र्जर": 4874,
      "▁मुलाकात": 4875,
      "बारी": 4876,
      "▁पूर": 4877,
      "▁पूर्वी": 4878,
      "▁उक्त": 4879,
      "सिटी": 4880,
      "▁डिजाइन": 4881,
      "▁रिस": 4882,
      "पक्ष": 4883,
      "▁पट्टी": 4884,
      "▁विशेषज्ञ": 4885,
      "गोल": 4886,
      "-भ": 4887,
      "▁एकल": 4888,
      "िनियम": 4889,
      "▁दी,": 4890,
      "▁पोर्ट": 4891,
      "▁अनिवार्य": 4892,
      "▁में।": 4893,
      "▁नगरपालिका": 4894,
      "▁स्त": 4895,
      "▁छोड़कर": 4896,
      "▁पालिका": 4897,
      "▁महोत्सव": 4898,
      "▁घे": 4899,
      "▁प्री": 4900,
      "▁बेट": 4901,
      "▁ओह,": 4902,
      "▁घड़ी": 4903,
      "भाषित": 4904,
      "▁ईसाई": 4905,
      "▁अक": 4906,
      "▁अथ": 4907,
      "▁लागे": 4908,
      "▁चट्टान": 4909,
      "वाड़ा": 4910,
      "▁झील": 4911,
      "र्वाद": 4912,
      "▁इलेक्ट": 4913,
      "▁सूत्र": 4914,
      "ारात्मक": 4915,
      "-छ": 4916,
      "▁भ्रम": 4917,
      "▁खतर": 4918,
      "धीश": 4919,
      "▁चाहीं": 4920,
      "▁अनुप": 4921,
      "▁बादल": 4922,
      "▁जम्म": 4923,
      "▁पकड़े": 4924,
      "ज्य": 4925,
      "चाप": 4926,
      "▁सिद्धांतों": 4927,
      "▁तिथि": 4928,
      "▁कर्तव्य": 4929,
      "▁चौकी": 4930,
      "▁ओ.": 4931,
      "▁ज्यादातर": 4932,
      "▁परिजन": 4933,
      "दर्शन": 4934,
      "▁तकनीक": 4935,
      "▁छोड़ने": 4936,
      "▁महिलाएं": 4937,
      "▁चुनौती": 4938,
      "वेल": 4939,
      "▁बुजुर्ग": 4940,
      "▁कार्यकर्ता": 4941,
      "▁असंभव": 4942,
      "दाता": 4943,
      "▁साधारण": 4944,
      "च्चे": 4945,
      "▁विद्या": 4946,
      "▁समझते": 4947,
      "राग": 4948,
      "▁ढंग": 4949,
      "▁रजि": 4950,
      "▁गुणवत्ता": 4951,
      "▁कने": 4952,
      "नान": 4953,
      "▁सैक": 4954,
      "▁महल": 4955,
      "म्मद": 4956,
      "▁१९६": 4957,
      "पीय": 4958,
      "रद": 4959,
      "▁गर्व": 4960,
      "▁सटीक": 4961,
      "▁उनुका": 4962,
      "भूति": 4963,
      "▁दाख": 4964,
      "▁आश्वासन": 4965,
      "ड्ढ": 4966,
      "वुड": 4967,
      "▁वक्त": 4968,
      "▁मसी": 4969,
      "▁पूजन": 4970,
      "मेट": 4971,
      "▁परिभाषित": 4972,
      "▁रहल।": 4973,
      "▁मंज": 4974,
      "श्री": 4975,
      "▁जोड़ा": 4976,
      "▁गैस": 4977,
      "▁अधिकतम": 4978,
      "▁एहसास": 4979,
      "▁मुस्कान": 4980,
      "िशन": 4981,
      "भाविक": 4982,
      "र्डर": 4983,
      "▁वकी": 4984,
      "▁डीएम": 4985,
      "▁हऽ": 4986,
      "▁प्रका": 4987,
      "▁अमी": 4988,
      "▁भेंट": 4989,
      "▁सश": 4990,
      "▁धरना": 4991,
      "▁आशीर्वाद": 4992,
      "▁शक्तिशाली": 4993,
      "▁दर्जन": 4994,
      "ग्रस्त": 4995,
      "श्वास": 4996,
      "▁होइ": 4997,
      "▁रहलें": 4998,
      "▁कितने": 4999,
      "▁जाया": 5000,
      "उर": 5001,
      "्टा": 5002,
      "▁३६": 5003,
      "▁इकाई": 5004,
      "▁विजे": 5005,
      "संध": 5006,
      "▁जानने": 5007,
      "▁बढ़ती": 5008,
      "▁कौशल": 5009,
      "स्ट्रेलिया": 5010,
      "▁असर": 5011,
      "▁देत": 5012,
      "ग्न": 5013,
      "▁सकऽ": 5014,
      "▁पांडे": 5015,
      "ॉर्क": 5016,
      "▁तीसरे": 5017,
      "▁सकी": 5018,
      "▁शेर": 5019,
      "▁1": 5020,
      "वहारिक": 5021,
      "▁जटिल": 5022,
      "▁संतुष्ट": 5023,
      "▁ग्राह": 5024,
      "परा": 5025,
      "ंतु": 5026,
      "बर्ग": 5027,
      "▁कव": 5028,
      "▁डाला": 5029,
      "▁व्यापारी": 5030,
      "▁सितम्बर": 5031,
      "▁मारी": 5032,
      "▁मुखिया": 5033,
      "▁चंद": 5034,
      "▁जोड़ी": 5035,
      "▁कब्जे": 5036,
      "▁मधु": 5037,
      "दुनिया": 5038,
      "▁जमकर": 5039,
      "जरी": 5040,
      "सनीय": 5041,
      "माने": 5042,
      "्वे": 5043,
      "स्त्री": 5044,
      "▁दिलचस्प": 5045,
      "▁यो": 5046,
      "्लो": 5047,
      "▁संविधान": 5048,
      "▁ढूंढ": 5049,
      "▁ओम": 5050,
      "वर्धन": 5051,
      "▁बिन": 5052,
      "▁अस्वी": 5053,
      "▁डिज": 5054,
      "▁पहुंचने": 5055,
      "▁बोलल": 5056,
      "▁अजय": 5057,
      "▁दोसरा": 5058,
      "जाम": 5059,
      "ूमि": 5060,
      "▁मेहनत": 5061,
      "▁४५": 5062,
      "▁टेली": 5063,
      "▁परमेश्वर": 5064,
      "ठीक": 5065,
      "वाल,": 5066,
      "▁बनाता": 5067,
      "▁प्रतिबंध": 5068,
      "▁शंकर": 5069,
      "▁गोपाल": 5070,
      "▁माँग": 5071,
      "▁करब": 5072,
      "▁दाम": 5073,
      "▁सावधानी": 5074,
      "▁नरेन्द्र": 5075,
      "▁छिप": 5076,
      "-बार": 5077,
      "▁ज़र": 5078,
      "▁सत्ता": 5079,
      "सी,": 5080,
      "▁मूर्ति": 5081,
      "▁बिक्री": 5082,
      "▁बिग": 5083,
      "एसपी": 5084,
      "ंबई": 5085,
      "▁दुश्मन": 5086,
      "चु": 5087,
      "▁अनुरूप": 5088,
      "▁अनिल": 5089,
      "▁बढ़ते": 5090,
      "▁आया,": 5091,
      "▁भऽ": 5092,
      "▁कहती": 5093,
      "▁क्रोध": 5094,
      "ंचल": 5095,
      "▁अधिनियम": 5096,
      "▁औसत": 5097,
      "ोजे": 5098,
      "▁मेल": 5099,
      "',": 5100,
      "ोग्राम": 5101,
      "▁रूम": 5102,
      "कें": 5103,
      "▁पकड़ने": 5104,
      "▁लू": 5105,
      "▁सोचते": 5106,
      "▁ब्रह्मा": 5107,
      "▁श्रीमान": 5108,
      "▁कू": 5109,
      "▁स्पेन": 5110,
      "ैट": 5111,
      "लामी": 5112,
      "▁आध्यात्म": 5113,
      "▁लउ": 5114,
      "केल": 5115,
      "▁जानी": 5116,
      "▁२०२१": 5117,
      "▁पवन": 5118,
      "▁नवा": 5119,
      "▁त्यो": 5120,
      "ल्फ": 5121,
      "▁टीवी": 5122,
      "सेस": 5123,
      "▁कहलक": 5124,
      "▁७०": 5125,
      "▁लगे।": 5126,
      "▁परिवहन": 5127,
      "▁करना,": 5128,
      "मार्": 5129,
      "।\"": 5130,
      "▁फीस": 5131,
      "-ग": 5132,
      "रीन": 5133,
      "▁फिर,": 5134,
      "▁एतना": 5135,
      "▁अनुवाद": 5136,
      "▁कां": 5137,
      "▁नशे": 5138,
      "▁कोच": 5139,
      "▁मतदान": 5140,
      "गीय": 5141,
      "▁डिब्": 5142,
      "▁समर्पित": 5143,
      "दाई": 5144,
      "▁त्योहार": 5145,
      "▁प्रौ": 5146,
      "▁निर्माता": 5147,
      "▁बरसा": 5148,
      "▁\"स": 5149,
      "▁रहें": 5150,
      "▁हृ": 5151,
      "ष्टा": 5152,
      "▁धरि": 5153,
      "▁रोटी": 5154,
      "▁मेले": 5155,
      "▁मौत:": 5156,
      "बीर": 5157,
      "▁पश्चिमी": 5158,
      "▁नोटिस": 5159,
      "▁तरीकों": 5160,
      "▁८०": 5161,
      "ध्या": 5162,
      "▁\"एक": 5163,
      "।।": 5164,
      "िटी": 5165,
      "▁सकारात्मक": 5166,
      "▁हँस": 5167,
      "लिंग": 5168,
      "▁द्र": 5169,
      "▁ग्रा": 5170,
      "▁जाएगी": 5171,
      "▁परिवर्त": 5172,
      "▁जोख": 5173,
      "्रीम": 5174,
      "▁निराशा": 5175,
      "▁बहादुर": 5176,
      "▁लेन": 5177,
      "▁इनका": 5178,
      "▁बधा": 5179,
      "▁\"ज": 5180,
      "▁भागी": 5181,
      "▁खतरे": 5182,
      "▁जाइ": 5183,
      "▁क्षमा": 5184,
      "▁फुसफु": 5185,
      "▁यात्रियों": 5186,
      "▁हाइ": 5187,
      "▁परवाह": 5188,
      "बड़": 5189,
      "▁वित्त": 5190,
      "▁स्रोत": 5191,
      "▁नियमों": 5192,
      "▁ह।": 5193,
      "▁दिहले": 5194,
      "संधान": 5195,
      "▁करै": 5196,
      "१९": 5197,
      "ामे": 5198,
      "▁गैर-": 5199,
      "बिन": 5200,
      "▁स्वभाव": 5201,
      "▁ऊँचा": 5202,
      "▁रहुवे": 5203,
      "▁श्रद्धा": 5204,
      "▁अली": 5205,
      "▁जनम": 5206,
      "▁पंडित": 5207,
      "▁रहऽ": 5208,
      "▁\"लेकिन": 5209,
      "ेंगे,": 5210,
      "▁कैथ": 5211,
      "▁पाने": 5212,
      "गांव": 5213,
      "▁दिह": 5214,
      "▁रॉबर्ट": 5215,
      "▁विद्यार्थियों": 5216,
      "▁सिविल": 5217,
      "▁जम्मू": 5218,
      "परी": 5219,
      "▁वॉ": 5220,
      "▁सर्वश": 5221,
      "▁नेपालक": 5222,
      "▁खै": 5223,
      "▁राज्यपाल": 5224,
      "हिना": 5225,
      "▁उत्सव": 5226,
      "न्दर": 5227,
      "▁दौरा": 5228,
      "मेल": 5229,
      "▁चुपचाप": 5230,
      "▁होखी": 5231,
      "▁आकर्षक": 5232,
      "▁बेश": 5233,
      "▁शहरों": 5234,
      "▁कें": 5235,
      "▁जॉर्ज": 5236,
      "ावत": 5237,
      "्यांकन": 5238,
      "▁बजट": 5239,
      "▁\"ओ": 5240,
      "मान्य": 5241,
      "▁पथ": 5242,
      "▁\"ब": 5243,
      "▁असह": 5244,
      "▁एच.": 5245,
      "पने": 5246,
      "क्षी": 5247,
      "▁झग": 5248,
      "▁बाड़े": 5249,
      "▁घरेलू": 5250,
      "▁कय": 5251,
      "▁लाइट": 5252,
      "▁बिस": 5253,
      "▁गांवों": 5254,
      "▁विवेक": 5255,
      "▁मिठा": 5256,
      "▁प्रत्या": 5257,
      "▁पिया": 5258,
      "▁गाल": 5259,
      "▁अकेला": 5260,
      "रत": 5261,
      "१५": 5262,
      "▁नज": 5263,
      "▁सिखा": 5264,
      "▁प्यारी": 5265,
      "▁अनुसंधान": 5266,
      "▁एक्सप्रेस": 5267,
      "▁माफ": 5268,
      "▁स्ट्र": 5269,
      "▁जंगली": 5270,
      "▁नीतीश": 5271,
      "द,": 5272,
      "▁आसमान": 5273,
      "▁गज": 5274,
      "▁अमृत": 5275,
      "भु": 5276,
      "▁होम": 5277,
      "▁व्यावहारिक": 5278,
      "▁विनम्र": 5279,
      "ड,": 5280,
      "▁धूप": 5281,
      "▁कौनों": 5282,
      "▁मप": 5283,
      "▁लेखा": 5284,
      "▁रहि": 5285,
      "▁वेतन": 5286,
      "दरी": 5287,
      "▁वाता": 5288,
      "▁विरोधी": 5289,
      "▁देवता": 5290,
      "नियों": 5291,
      "▁ज्यो": 5292,
      "▁१.": 5293,
      "▁फुल": 5294,
      "▁क्ले": 5295,
      "▁तनाव": 5296,
      "▁गोरख": 5297,
      "▁फुसफुसा": 5298,
      "▁है--": 5299,
      "▁दिवसीय": 5300,
      "▁इलेक्ट्र": 5301,
      "२५": 5302,
      "▁गिरफ्तारी": 5303,
      "▁तकनीकी": 5304,
      "▁गू": 5305,
      "▁दें,": 5306,
      "▁कर्मियों": 5307,
      "व्यवस्था": 5308,
      "▁भावनाओं": 5309,
      "▁जोखिम": 5310,
      "▁बूढ़े": 5311,
      "दमी": 5312,
      "करो": 5313,
      "▁सच्चाई": 5314,
      "▁मपध॰": 5315,
      "▁मुंह": 5316,
      "▁आंक": 5317,
      "▁स्वाभाविक": 5318,
      "स्टन": 5319,
      "ूर्त": 5320,
      "▁सौंपा": 5321,
      "▁त्रि": 5322,
      "नुमान": 5323,
      "▁युवती": 5324,
      "▁पिछला": 5325,
      "▁है।\"": 5326,
      "▁छूट": 5327,
      "▁वारदात": 5328,
      "रिक्ष": 5329,
      "▁पुष्": 5330,
      "▁'अ": 5331,
      "-ए": 5332,
      "ेंज": 5333,
      "▁लायक": 5334,
      "श्त": 5335,
      "▁ऑफिस": 5336,
      "▁प्रकाशन": 5337,
      "▁नहर": 5338,
      "▁उदा": 5339,
      "ौं": 5340,
      "▁प्रदर्शित": 5341,
      "▁रणनी": 5342,
      "▁चालू": 5343,
      "▁हुई,": 5344,
      "▁डें": 5345,
      "▁निकले": 5346,
      "▁अगली": 5347,
      "▁अत्यधिक": 5348,
      "वती": 5349,
      "▁बुद्ध": 5350,
      "्रीट": 5351,
      "▁जलवा": 5352,
      "▁रैली": 5353,
      "▁परिणामस्वरूप": 5354,
      "ंटर": 5355,
      "▁संपा": 5356,
      "▁परिस्थितियों": 5357,
      "ार्ज": 5358,
      "▁आए।": 5359,
      "▁प्रण": 5360,
      "▁मिलती": 5361,
      "▁सिन्हा": 5362,
      "▁लल": 5363,
      "ैंप": 5364,
      "▁हजारों": 5365,
      "▁अनुकूल": 5366,
      "लभ": 5367,
      "▁बैं": 5368,
      "▁पइ": 5369,
      "▁पंक्ति": 5370,
      "▁संगठ": 5371,
      "▁गहराई": 5372,
      "▁किये": 5373,
      "▁हस्त": 5374,
      "▁आरा": 5375,
      "▁वर्षा": 5376,
      "▁कप्तान": 5377,
      "▁\"मे": 5378,
      "▁लाखों": 5379,
      "),": 5380,
      "▁दाह": 5381,
      "▁वातावरण": 5382,
      "िवे": 5383,
      "▁बड़का": 5384,
      "ुण": 5385,
      "वास्तव": 5386,
      "फोर्ड": 5387,
      "▁व्यस्त": 5388,
      "▁माहौल": 5389,
      "्ता": 5390,
      "▁बंदर": 5391,
      "▁नींद": 5392,
      "▁गड्ढ": 5393,
      "▁सॉ": 5394,
      "▁नीक": 5395,
      "ूंगा।": 5396,
      "▁किर": 5397,
      "▁दैनिक": 5398,
      "वेट": 5399,
      "▁अफ्री": 5400,
      "▁बताने": 5401,
      "▁सकता।": 5402,
      "▁देशदुनिया": 5403,
      "▁विज्ञ": 5404,
      "ंधा": 5405,
      "▁घट": 5406,
      "▁बर्बाद": 5407,
      "सेना": 5408,
      "▁लिखे": 5409,
      "ष्णु": 5410,
      "ारण": 5411,
      "▁संकट": 5412,
      "▁पैदल": 5413,
      "▁महामारी": 5414,
      "▁छापे": 5415,
      "▁बच्ची": 5416,
      "▁यूनिव": 5417,
      "▁हड़ताल": 5418,
      "▁गंभीरता": 5419,
      "▁टेक्": 5420,
      "▁बीत": 5421,
      "▁2": 5422,
      "▁प्रौद्योग": 5423,
      "हिया": 5424,
      "▁सुनाई": 5425,
      "▁उड़ान": 5426,
      "शेष": 5427,
      "▁तिल": 5428,
      "श्चा": 5429,
      "▁पीड़ा": 5430,
      "▁ग्रुप": 5431,
      "▁समापन": 5432,
      "▁बोलने": 5433,
      "▁राजीव": 5434,
      "ंशिक": 5435,
      "धित": 5436,
      "▁डिजिटल": 5437,
      "▁३७": 5438,
      "मह": 5439,
      "▁गुल": 5440,
      "▁सीधा": 5441,
      "▁उदास": 5442,
      "▁मीणा": 5443,
      "▁आध्यात्मिक": 5444,
      "▁गुणों": 5445,
      "ोसी": 5446,
      "सेन": 5447,
      "▁चाकू": 5448,
      "▁बचने": 5449,
      "▁मूल्यांकन": 5450,
      "▁यू.": 5451,
      "भूमि": 5452,
      "त्तीस": 5453,
      "▁गेंद": 5454,
      "▁कंधे": 5455,
      "ंटों": 5456,
      "▁घेर": 5457,
      "िलास": 5458,
      "▁इत्या": 5459,
      "▁घृ": 5460,
      "▁हनुमान": 5461,
      "▁साधन": 5462,
      "म्भ": 5463,
      "िप्त": 5464,
      "वीय": 5465,
      "▁निकाय": 5466,
      "▁ड्राइवर": 5467,
      "▁डु": 5468,
      "साइड": 5469,
      "▁बातें": 5470,
      "▁विभाजित": 5471,
      "▁किमी": 5472,
      "▁सेल": 5473,
      "▁टुकड़े": 5474,
      "▁मछली": 5475,
      "▁घाय": 5476,
      "ंसीसी": 5477,
      "▁इमारत": 5478,
      "द्रा": 5479,
      "▁अपर": 5480,
      "▁संभाल": 5481,
      "▁राकेश": 5482,
      "वा,": 5483,
      "ए,": 5484,
      "▁कोर": 5485,
      "▁बदलने": 5486,
      "िके": 5487,
      "▁रिलीज": 5488,
      "▁बख": 5489,
      "िंगटन": 5490,
      "▁घाटी": 5491,
      "▁उजा": 5492,
      "▁बुनिया": 5493,
      "दायिक": 5494,
      "▁पड़ा।": 5495,
      "राई": 5496,
      "▁चौहान": 5497,
      "▁हिन्दू": 5498,
      "▁प्रतिबद्ध": 5499,
      "▁बलि": 5500,
      "धाम": 5501,
      "▁जख": 5502,
      "▁गैंग": 5503,
      "फान": 5504,
      "▁समृद्ध": 5505,
      "कोट": 5506,
      "▁खुलासा": 5507,
      "▁बिर": 5508,
      "▁पहुंचकर": 5509,
      "▁विद्युत": 5510,
      "▁फि": 5511,
      "▁वायरस": 5512,
      "▁हरी": 5513,
      "▁३४": 5514,
      "▁भरल": 5515,
      "▁आर्ट": 5516,
      "▁मुंबई": 5517,
      "▁कठिना": 5518,
      "▁निर्वाचन": 5519,
      "▁वाक्य": 5520,
      "▁प्रेमी": 5521,
      "▁वास्तविकता": 5522,
      "▁वर": 5523,
      "▁सवारी": 5524,
      "▁इन्हें": 5525,
      "िआ": 5526,
      "▁उदार": 5527,
      "▁लेखन": 5528,
      "▁हम्मर": 5529,
      "▁लटक": 5530,
      "ऊँ": 5531,
      "▁रहलन": 5532,
      "▁चिप": 5533,
      "▁३८": 5534,
      "वर्क": 5535,
      "▁होवे": 5536,
      "▁\"प": 5537,
      "▁हलन": 5538,
      "▁राधा": 5539,
      "ुक्ति": 5540,
      "चलित": 5541,
      "▁सीता": 5542,
      "▁गेल।": 5543,
      "▁अंगरे": 5544,
      "पेक्ष": 5545,
      "ंगर": 5546,
      "▁चीज़ें": 5547,
      "▁स्टार": 5548,
      "-जैसे": 5549,
      "▁भोग": 5550,
      "▁जानती": 5551,
      "वर्ती": 5552,
      "१२": 5553,
      "▁आंशिक": 5554,
      "▁चलल": 5555,
      "▁चिंतित": 5556,
      "▁गौरव": 5557,
      "▁सपा": 5558,
      "▁राव": 5559,
      "▁नियंत्रित": 5560,
      "▁मंजू": 5561,
      "▁अदमी": 5562,
      "▁चलाने": 5563,
      "यम": 5564,
      "▁प्रास": 5565,
      "▁\"ह": 5566,
      "▁अब,": 5567,
      "्हे": 5568,
      "▁खतरनाक": 5569,
      "▁देबे": 5570,
      "▁न्यायाधीश": 5571,
      "नरी": 5572,
      "ता।": 5573,
      "▁उज्ज": 5574,
      "▁फ्री": 5575,
      "▁सकेला": 5576,
      "▁सज्": 5577,
      "▁जाहि": 5578,
      "▁उल्लेखनीय": 5579,
      "षेक": 5580,
      "▁अंतरिक्ष": 5581,
      "▁सीढ़": 5582,
      "▁होवऽ": 5583,
      "ंपरिक": 5584,
      "▁ब्या": 5585,
      "▁निम्नलिखित": 5586,
      "▁दावे": 5587,
      "ब,": 5588,
      "▁वला": 5589,
      "वाय": 5590,
      "▁स्टैंड": 5591,
      "▁मानस": 5592,
      "▁प्राणी": 5593,
      "▁कमरा": 5594,
      "▁फर्श": 5595,
      "▁ऑस्ट्रेलिया": 5596,
      "▁सैनिकों": 5597,
      "▁छथि।": 5598,
      "▁वैश्व": 5599,
      "िक,": 5600,
      "ंदे": 5601,
      "र्सिटी": 5602,
      "▁पंजी": 5603,
      "▁इत्यादि": 5604,
      "▁संदि": 5605,
      "▁अस्पष्ट": 5606,
      "▁न्यूनतम": 5607,
      "▁सिक्": 5608,
      "मिथ": 5609,
      "▁प्रोत्साहित": 5610,
      "जना": 5611,
      "▁कृप": 5612,
      "यक": 5613,
      "लाक": 5614,
      "▁बातों": 5615,
      "-और": 5616,
      "▁कागज": 5617,
      "▁फाइनल": 5618,
      "▁सुनने": 5619,
      "▁बीज": 5620,
      "▁झुका": 5621,
      "▁वजन": 5622,
      "▁शुभार": 5623,
      "▁प्रतिष्ठ": 5624,
      "▁अर्था": 5625,
      "▁इसने": 5626,
      "▁अपेक्षा": 5627,
      "▁गाउँ": 5628,
      "▁हृदय": 5629,
      "▁एप": 5630,
      "▁फ्रांसीसी": 5631,
      "▁मजाक": 5632,
      "▁एलिस": 5633,
      "▁संदिग्ध": 5634,
      "▁रामा": 5635,
      "ोकन": 5636,
      "▁साम्रा": 5637,
      "▁जुट": 5638,
      "▁भूख": 5639,
      "▁कारण,": 5640,
      "कुम": 5641,
      "▁बाड़ें": 5642,
      "धिकारियों": 5643,
      "इले": 5644,
      "▁अनंत": 5645,
      "▁मैने": 5646,
      "रित": 5647,
      "▁भिन्न": 5648,
      "▁पीट": 5649,
      "▁पाण्ड": 5650,
      "▁हस्ताक्षर": 5651,
      "▁ठेके": 5652,
      "डियम": 5653,
      "▁खोजने": 5654,
      "ब्लिक": 5655,
      "▁जर्मन": 5656,
      "५,": 5657,
      "▁अनुरोध": 5658,
      "दों": 5659,
      "▁मुआ": 5660,
      "▁शुरु": 5661,
      "▁अग्न": 5662,
      "▁हउ": 5663,
      "ाराण": 5664,
      "▁स्वस्थ": 5665,
      "▁उहाँ": 5666,
      "▁देरी": 5667,
      "▁नियर": 5668,
      "▁उपयोगी": 5669,
      "▁एकत्र": 5670,
      "▁दुखी": 5671,
      "▁चेक": 5672,
      "▁फट": 5673,
      "▁सीसी": 5674,
      "ुरु": 5675,
      "▁का,": 5676,
      "▁बड़हन": 5677,
      "▁कॉलोनी": 5678,
      "णि": 5679,
      "▁चक्र": 5680,
      "भि": 5681,
      "▁चिह्न": 5682,
      "काने": 5683,
      "▁साहस": 5684,
      "्वल": 5685,
      "▁हमले": 5686,
      "▁डेढ़": 5687,
      "▁प्रिंस": 5688,
      "▁दयालु": 5689,
      "फ्र": 5690,
      "▁बधाई": 5691,
      "▁गतिविधियों": 5692,
      "सीन": 5693,
      "▁अध्या": 5694,
      "उन्ह": 5695,
      "-ख": 5696,
      "▁दंड": 5697,
      "वेन": 5698,
      "▁शपथ": 5699,
      "-\"": 5700,
      "▁पों": 5701,
      "▁घंटा": 5702,
      "▁बुलाया": 5703,
      "▁सदी": 5704,
      "▁म्यू": 5705,
      "▁निदेशक": 5706,
      "▁लगाते": 5707,
      "▁इंटरनेट": 5708,
      "▁शेष": 5709,
      "▁आउर": 5710,
      "िन,": 5711,
      "स्टिक": 5712,
      "▁प्रशासनिक": 5713,
      "▁प्रजाति": 5714,
      "▁नाबाल": 5715,
      "▁\"तुम": 5716,
      "▁होए": 5717,
      "▁बाने": 5718,
      "▁लगी।": 5719,
      "▁रेफर": 5720,
      "मंडल": 5721,
      "▁उंगल": 5722,
      "ॉय": 5723,
      "बान": 5724,
      "▁रात्रि": 5725,
      "▁पच्छ": 5726,
      "▁सुनवाई": 5727,
      "▁मुद्दे": 5728,
      "२३": 5729,
      "▁पारंपरिक": 5730,
      "▁चढ़ा": 5731,
      "▁बार-बार": 5732,
      "ियाँ,": 5733,
      "▁पर्यटन": 5734,
      "राष्ट्रीय": 5735,
      "विच": 5736,
      "ंसक": 5737,
      "हिर": 5738,
      "▁पचास": 5739,
      "ार,": 5740,
      "▁पीने": 5741,
      "▁सम्बन्ध": 5742,
      "▁छीन": 5743,
      "▁निधन": 5744,
      "▁केन्द": 5745,
      "▁ज्योति": 5746,
      "▁बग": 5747,
      "▁त्व": 5748,
      "▁सेन": 5749,
      "▁जलवायु": 5750,
      "▁कोट": 5751,
      "▁शेयर": 5752,
      "▁\"म": 5753,
      "▁सुखद": 5754,
      "▁स्थाना": 5755,
      "रीय": 5756,
      "▁अक्ष": 5757,
      "▁मुकेश": 5758,
      "कर्मी": 5759,
      "द्री": 5760,
      "▁निबंध": 5761,
      "▁कहले": 5762,
      "▁न्यूय": 5763,
      "▁ठोस": 5764,
      "▁ब्ला": 5765,
      "नाइ": 5766,
      "▁ठंड": 5767,
      "ॉग": 5768,
      "गमन": 5769,
      "▁नफर": 5770,
      "▁छुट्टी": 5771,
      "▁बुनियादी": 5772,
      "-सम": 5773,
      "स्सी": 5774,
      "▁भेद": 5775,
      "▁धाम": 5776,
      "▁भइल।": 5777,
      "पचारिक": 5778,
      "▁जाएगा,": 5779,
      "न्व": 5780,
      "ेस": 5781,
      "यात्रा": 5782,
      "▁खेला": 5783,
      "▁चलाया": 5784,
      "क्ल": 5785,
      "▁संभवतः": 5786,
      "▁ट्रैक्टर": 5787,
      "▁प्रेरणा": 5788,
      "▁गर्दन": 5789,
      "▁अस्वीकार": 5790,
      "▁फिन": 5791,
      "▁लिखित": 5792,
      "▁पुनः": 5793,
      "▁श्याम": 5794,
      "▁ऑटो": 5795,
      "▁अपराधी": 5796,
      "ाराम": 5797,
      "▁ब्लैक": 5798,
      "▁किए।": 5799,
      "▁उड़ा": 5800,
      "▁कोमल": 5801,
      "▁सप्": 5802,
      "▁गये": 5803,
      "▁गेलन": 5804,
      "▁दुकानों": 5805,
      "▁डेविड": 5806,
      "▁२.": 5807,
      "▁खाद्य": 5808,
      "▁मनुष्यों": 5809,
      "िंट": 5810,
      "मिक": 5811,
      "▁फिट": 5812,
      "▁लोकसभा": 5813,
      "▁मेर": 5814,
      "▁स्टूड": 5815,
      "▁रसोई": 5816,
      "▁उठाने": 5817,
      "४७": 5818,
      "तापूर्ण": 5819,
      "▁हिन": 5820,
      "हाबाद": 5821,
      "▁पुरान": 5822,
      "▁मुस्कुराते": 5823,
      "▁\"\",": 5824,
      "का,": 5825,
      "▁अतीत": 5826,
      "▁जुड़ी": 5827,
      "▁प्राव": 5828,
      "▁छोर": 5829,
      "▁क्षेत्रीय": 5830,
      "▁चेतना": 5831,
      "▁सुप": 5832,
      "▁वार्ता": 5833,
      "रेन": 5834,
      "▁अर्थव्यवस्था": 5835,
      "▁एजेंसी": 5836,
      "स्फोट": 5837,
      "▁गहरे": 5838,
      "▁राजकीय": 5839,
      "▁मैन": 5840,
      "▁विसर्जन": 5841,
      "▁हैरान": 5842,
      "▁कैदी": 5843,
      "▁सुरेश": 5844,
      "▁मसीह": 5845,
      "▁संचार": 5846,
      "▁सामूह": 5847,
      "ंगामा": 5848,
      "▁२०१७": 5849,
      "ैड": 5850,
      "▁वापसी": 5851,
      "▁नफरत": 5852,
      "▁वहीं,": 5853,
      "ड्डा": 5854,
      "ंछ": 5855,
      "ल।": 5856,
      "वर्ड": 5857,
      "▁पित": 5858,
      "िअइ": 5859,
      "▁प्रोजे": 5860,
      "एं।": 5861,
      "▁भोपाल": 5862,
      "▁बालों": 5863,
      "▁आई।": 5864,
      "▁आँसू": 5865,
      "▁सुनील": 5866,
      "विधि": 5867,
      "▁केन्द्रीय": 5868,
      "ोज़": 5869,
      "▁जेह": 5870,
      "शांत": 5871,
      "▁गुना": 5872,
      "▁आकृति": 5873,
      "▁इरादा": 5874,
      "बूझ": 5875,
      "▁फिलहाल": 5876,
      "▁पूर्वा": 5877,
      "▁छत्तीस": 5878,
      "▁खाता": 5879,
      "▁आश्व": 5880,
      "▁सब्": 5881,
      "▁चलो": 5882,
      "▁\"उसने": 5883,
      "१८": 5884,
      "पोर्ट": 5885,
      "▁रेड": 5886,
      "िएशन": 5887,
      "▁महाराष्ट्र": 5888,
      "▁शुभारंभ": 5889,
      "▁बाइ": 5890,
      "▁९०": 5891,
      "▁कोने": 5892,
      "▁विस्तृत": 5893,
      "ण,": 5894,
      "▁केल": 5895,
      "▁दुर्भाग्य": 5896,
      "▁तुम्हारे": 5897,
      "▁दक्खिन": 5898,
      "▁बदमाशों": 5899,
      "▁हंगामा": 5900,
      "▁लाठी": 5901,
      "▁पावल": 5902,
      "ष्कार": 5903,
      "▁गिरने": 5904,
      "▁के.": 5905,
      "▁भाइयों": 5906,
      "स्लिम": 5907,
      "▁बुर": 5908,
      "▁विजेता": 5909,
      "व्र": 5910,
      "▁नाक": 5911,
      "▁शाही": 5912,
      "न्ने": 5913,
      "▁हटाने": 5914,
      "पित": 5915,
      "▁गली": 5916,
      "▁जनजा": 5917,
      "▁पेड़ों": 5918,
      "▁पड़ोसी": 5919,
      "▁प्राय": 5920,
      "▁प्रतीक": 5921,
      "▁चिकित्सक": 5922,
      "▁लाग": 5923,
      "▁जरुर": 5924,
      "▁छवि": 5925,
      "▁एना": 5926,
      "कां": 5927,
      "▁निर्देशित": 5928,
      "▁संवेदन": 5929,
      "र्वे": 5930,
      "▁परिभाषा": 5931,
      "▁ग्रंथ": 5932,
      "ाराणसी": 5933,
      "िसी": 5934,
      "▁करवाया": 5935,
      "▁लें।": 5936,
      "▁स्टेट": 5937,
      "▁भक्ति": 5938,
      "म्बा": 5939,
      "स्पिटल": 5940,
      "▁बतावल": 5941,
      "धारी": 5942,
      "▁नाबालिग": 5943,
      "ल्ल": 5944,
      "्रेष्ठ": 5945,
      "▁इलाकों": 5946,
      "१७": 5947,
      "▁क्षति": 5948,
      "▁मैथ": 5949,
      "▁सबके": 5950,
      "▁तोर": 5951,
      "▁लड़कियों": 5952,
      "ंडों": 5953,
      "▁आशंका": 5954,
      "▁द्द": 5955,
      "▁रहत": 5956,
      "मेन": 5957,
      "▁शही": 5958,
      "▁विषयों": 5959,
      "▁कोन": 5960,
      "▁७५": 5961,
      "▁वैश्विक": 5962,
      "▁एकता": 5963,
      "▁असली": 5964,
      "▁नाथ": 5965,
      "▁कमल": 5966,
      "्यक्रम": 5967,
      "▁मिली।": 5968,
      "▁दुष्ट": 5969,
      "छल": 5970,
      "▁मोर्चा": 5971,
      "▁पदों": 5972,
      "चरण": 5973,
      "▁बट": 5974,
      "▁आंगन": 5975,
      "▁त्याग": 5976,
      "▁देखि": 5977,
      "▁राजस्व": 5978,
      "▁बढ़िया": 5979,
      "▁गणना": 5980,
      "डु": 5981,
      "▁कामना": 5982,
      "कइ": 5983,
      "▁मुद्दों": 5984,
      "▁१,": 5985,
      "▁ओर,": 5986,
      "हत्या": 5987,
      "▁सराहना": 5988,
      "▁अभाव": 5989,
      "▁यूनिवर्सिटी": 5990,
      "▁आदत": 5991,
      "▁चन्द्र": 5992,
      "▁आयुक्त": 5993,
      "▁नैतिकता": 5994,
      "ंजा": 5995,
      "भो": 5996,
      "▁बीच,": 5997,
      "▁सैन्य": 5998,
      "▁परिक": 5999,
      "▁थानाध्यक्ष": 6000,
      "▁जाए,": 6001,
      "▁पशुओं": 6002,
      "ज़न": 6003,
      "▁खिलाड़ियों": 6004,
      "▁सेल्स": 6005,
      "▁रिच": 6006,
      "य,": 6007,
      "▁देंगे।": 6008,
      "▁प्रवृत्ति": 6009,
      "▁सतह": 6010,
      "▁स्टाफ": 6011,
      "▁आज्ञ": 6012,
      "▁सामूहिक": 6013,
      "ाना,": 6014,
      "बारा": 6015,
      "माम": 6016,
      "▁सज्जन": 6017,
      "▁घनत्व": 6018,
      "-पा": 6019,
      "▁साक्षर": 6020,
      "▁जागरूकता": 6021,
      "▁स्टूडेंट": 6022,
      "वेयर": 6023,
      "डन": 6024,
      "▁वकील": 6025,
      "ोगा": 6026,
      "▁द्दौ": 6027,
      "राज्य": 6028,
      "▁करवाने": 6029,
      "▁साढ़े": 6030,
      "▁नाच": 6031,
      "▁जुल": 6032,
      "▁एसोस": 6033,
      "▁लटका": 6034,
      "▁निहित": 6035,
      "्तीय": 6036,
      "▁हिस्सों": 6037,
      "▁गुम": 6038,
      "▁दिव्य": 6039,
      "▁मालूम": 6040,
      "▁पुनर्": 6041,
      "▁भटक": 6042,
      "ठे": 6043,
      "▁तृ": 6044,
      "हेज": 6045,
      "▁प्रताप": 6046,
      "▁थे;": 6047,
      "▁पदक": 6048,
      "▁कार्यवाही": 6049,
      "▁लइका": 6050,
      "▁वायरल": 6051,
      "▁वेस्ट": 6052,
      "▁हौ": 6053,
      "▁पोषण": 6054,
      "▁कना": 6055,
      "▁श्रद्धालुओं": 6056,
      "▁प्रश्": 6057,
      "हेब": 6058,
      "▁ब्राह": 6059,
      "▁खाम": 6060,
      "▁बिलकुल": 6061,
      "ड्स": 6062,
      "▁प्रकार,": 6063,
      "-ह": 6064,
      "▁'आ": 6065,
      "▁कारोबार": 6066,
      "ून्य": 6067,
      "मार्ग": 6068,
      "▁चिन्ह": 6069,
      "▁निर्मित": 6070,
      "▁शैतान": 6071,
      "▁प्रौद्योगिकी": 6072,
      "▁कांप": 6073,
      "स्थल": 6074,
      "▁उत्ते": 6075,
      "▁दिखाने": 6076,
      "१६": 6077,
      "▁गढ़": 6078,
      "▁मेन": 6079,
      "▁आपस": 6080,
      "▁पड़ोस": 6081,
      "ोजित": 6082,
      "▁लाश": 6083,
      "वासियों": 6084,
      "प,": 6085,
      "▁प्रभावी": 6086,
      "▁थी;": 6087,
      "लकइ": 6088,
      "▁सैकड़ों": 6089,
      "▁प्रदू": 6090,
      "▁अछि.": 6091,
      "▁लह": 6092,
      "▁न्यूयॉर्क": 6093,
      "▁अनिश्चित": 6094,
      "१४": 6095,
      "▁गोड़": 6096,
      "▁देगा": 6097,
      "वाने": 6098,
      "▁पेंशन": 6099,
      "▁परिवारों": 6100,
      "▁ओकन्हीं": 6101,
      "▁>>": 6102,
      "▁काहें": 6103,
      "र्या": 6104,
      "▁पेट्र": 6105,
      "▁आज्ञा": 6106,
      "▁महाप": 6107,
      "▁चलि": 6108,
      "▁पन": 6109,
      "▁गार": 6110,
      "▁चित": 6111,
      "▁दिहलसि": 6112,
      "▁पिछली": 6113,
      "▁अकादमी": 6114,
      "▁विनाश": 6115,
      "ंगत": 6116,
      "▁पहना": 6117,
      "▁बेस": 6118,
      "रज": 6119,
      "▁रमेश": 6120,
      "सन्न": 6121,
      "▁खोला": 6122,
      "▁विस्फोट": 6123,
      "लास": 6124,
      "▁लीजिए": 6125,
      "▁होके": 6126,
      "▁जेब": 6127,
      "▁जौ": 6128,
      "बीन": 6129,
      "▁दुर्गा": 6130,
      "छे": 6131,
      "▁ईमानदारी": 6132,
      "▁प्राथमिकता": 6133,
      "▁जगा": 6134,
      "▁दादा": 6135,
      "नल": 6136,
      "▁सबूत": 6137,
      "▁काल्ह": 6138,
      "वला": 6139,
      "▁तस्कर": 6140,
      "▁कत": 6141,
      "टीवी": 6142,
      "▁नियुक्ति": 6143,
      "▁एडम": 6144,
      "पत्र": 6145,
      "▁समीप": 6146,
      "▁जरिए": 6147,
      "▁व्यक्तित्व": 6148,
      "ोॅ": 6149,
      "▁जुड़ा": 6150,
      "▁निर्द": 6151,
      "▁मच": 6152,
      "मांड": 6153,
      "धिकारिक": 6154,
      "▁आजादी": 6155,
      "-३": 6156,
      "▁स्थायी": 6157,
      "▁निकालने": 6158,
      "▁टोपी": 6159,
      "▁छापेमारी": 6160,
      "▁पश्चा": 6161,
      "लेस": 6162,
      "▁२०२०": 6163,
      "रुद्ध": 6164,
      "▁बीते": 6165,
      "▁गतिविधि": 6166,
      "▁रउरा": 6167,
      "ोलॉजी": 6168,
      "प्रकाश": 6169,
      "▁साम्राज्य": 6170,
      "▁प्रावधान": 6171,
      "प्प": 6172,
      "▁रोल": 6173,
      "वाक": 6174,
      "▁\"ठीक": 6175,
      "▁तुमसे": 6176,
      "▁थै": 6177,
      "▁ताला": 6178,
      "▁गुस्सा": 6179,
      "शंकर": 6180,
      "▁किंग": 6181,
      "▁पीढ़ी": 6182,
      "▁बताता": 6183,
      "▁आग्रह": 6184,
      "▁जाऊंगा": 6185,
      "▁रहेंगे।": 6186,
      "ड़ी,": 6187,
      "▁बनि": 6188,
      "▁चपेट": 6189,
      "▁फांसी": 6190,
      "▁स्त्री": 6191,
      "ंदाज": 6192,
      "▁मुस्लिम": 6193,
      "▁अंश": 6194,
      "▁शुल्क": 6195,
      "▁अंगरेजी": 6196,
      "▁अधीक्षक": 6197,
      "▁वाल": 6198,
      "ती,": 6199,
      "▁कहान": 6200,
      "ीदा": 6201,
      "▁मैरी": 6202,
      "▁सकैत": 6203,
      "▁'क": 6204,
      "▁बम": 6205,
      "▁इच्छ": 6206,
      "▁जुड़ल": 6207,
      "▁सर्वश्रेष्ठ": 6208,
      "▁गईं": 6209,
      "र्नल": 6210,
      "▁मौलिक": 6211,
      "▁पेय": 6212,
      "▁जनपद": 6213,
      "▁आश्वस्त": 6214,
      "▁थोड़े": 6215,
      "▁बंदूक": 6216,
      "▁वित्तीय": 6217,
      "▁भजन": 6218,
      "▁समुद्री": 6219,
      "▁अंजाम": 6220,
      "▁आगामी": 6221,
      "▁स्ने": 6222,
      "▁डालने": 6223,
      "े,": 6224,
      "▁पछ": 6225,
      "▁इंस": 6226,
      "दाबाद": 6227,
      "▁गरीबी": 6228,
      "ूदी": 6229,
      "िने": 6230,
      "▁वस": 6231,
      "▁अंडर": 6232,
      "▁जाएंगे": 6233,
      "▁दिनेश": 6234,
      "ारस": 6235,
      "▁काबू": 6236,
      "ष्ठा": 6237,
      "▁जैसे-जैसे": 6238,
      "ल्ले": 6239,
      "▁कब्र": 6240,
      "▁यूनि": 6241,
      "▁वाराणसी": 6242,
      "▁आधिकारिक": 6243,
      "▁अमरी": 6244,
      "▁[": 6245,
      "▁अंततः": 6246,
      "ोषण": 6247,
      "▁युवकों": 6248,
      "टा,": 6249,
      "▁खेलों": 6250,
      "-ट": 6251,
      "▁नहा": 6252,
      "▁यूरोपीय": 6253,
      "ड़,": 6254,
      "▁चैनल": 6255,
      "भौ": 6256,
      "▁विरोधा": 6257,
      "▁तीसरा": 6258,
      "▁घाटों": 6259,
      "खार": 6260,
      "▁२०१९": 6261,
      "▁मन्द": 6262,
      "▁ऑपरेशन": 6263,
      "▁स्पेश": 6264,
      "२४": 6265,
      "ंचित": 6266,
      "▁प्रोजेक्ट": 6267,
      "▁\"मैंने": 6268,
      "बिल": 6269,
      "▁पाते": 6270,
      "▁५००": 6271,
      "▁आकर्षण": 6272,
      "▁नियन": 6273,
      "▁\"हाँ": 6274,
      "▁महेश": 6275,
      "▁बस्ती": 6276,
      "▁लिखने": 6277,
      "▁होय": 6278,
      "▁माध्यमिक": 6279,
      "▁कपड़ा": 6280,
      "▁चक": 6281,
      "▁सांप": 6282,
      "्हार": 6283,
      "▁अर्थात्": 6284,
      "ड्र": 6285,
      "▁संचालक": 6286,
      "▁हॉस्पिटल": 6287,
      "▁बुढ़": 6288,
      "द्दी": 6289,
      "▁मने": 6290,
      "▁साथियों": 6291,
      "▁कॉन्": 6292,
      "▁कार्": 6293,
      "▁हूँ\",": 6294,
      "▁सूचित": 6295,
      "▁अन्न": 6296,
      "▁मुसल": 6297,
      "▁'मैं": 6298,
      "▁समानता": 6299,
      "▁देखें।": 6300,
      "▁गोरखपुर": 6301,
      "▁यांग": 6302,
      "▁नील": 6303,
      "▁मोहम्मद": 6304,
      "▁मातृ": 6305,
      "उंट": 6306,
      "ै।": 6307,
      "▁प्रतीक्षा": 6308,
      "▁हँसी": 6309,
      "▁विभाजन": 6310,
      "▁अभ्य": 6311,
      "▁तेरे": 6312,
      "▁शोक": 6313,
      "▁जितनी": 6314,
      "टरी": 6315,
      "पण": 6316,
      "▁कृपया": 6317,
      "▁हाव": 6318,
      "▁छत्तीसगढ़": 6319,
      "▁कंट": 6320,
      "▁गुलाब": 6321,
      "▁बरिस": 6322,
      "भास": 6323,
      "▁विनोद": 6324,
      "▁हिअइ": 6325,
      "ंजलि": 6326,
      "▁साज": 6327,
      "▁नारी": 6328,
      "▁रिट": 6329,
      "▁शूट": 6330,
      "▁कहि": 6331,
      "▁सामु": 6332,
      "▁सृ": 6333,
      "▁स्थितियों": 6334,
      "▁विद्यार्थी": 6335,
      "लीस": 6336,
      "ग्राम": 6337,
      "ियाना": 6338,
      "▁सोल": 6339,
      "▁हमन्हीं": 6340,
      "▁आमंत्रित": 6341,
      "▁बिआ": 6342,
      "▁सकते।": 6343,
      "▁परमाण": 6344,
      "▁स्नान": 6345,
      "▁डेन": 6346,
      "▁तीसरी": 6347,
      "▁ड्यूटी": 6348,
      "▁पक्षों": 6349,
      "▁सेल्सियस": 6350,
      "▁डेंगू": 6351,
      "▁एकदम": 6352,
      "▁महाविद्यालय": 6353,
      "सागर": 6354,
      "▁स्वरूप": 6355,
      "▁क्रूर": 6356,
      "प्रदेश": 6357,
      "६०": 6358,
      "▁जादे": 6359,
      "▁गिल": 6360,
      "र्धा": 6361,
      "▁अतिक": 6362,
      "▁टॉम": 6363,
      "पूर्व": 6364,
      "▁चोरों": 6365,
      "▁लक्षण": 6366,
      "▁प्रांत": 6367,
      "▁दरअ": 6368,
      "▁दह": 6369,
      "▁हिरासत": 6370,
      "▁स्वर्ण": 6371,
      "▁ब्रह्म": 6372,
      "इज": 6373,
      "फोन": 6374,
      "▁प्रथा": 6375,
      "▁चलत": 6376,
      "▁हुनका": 6377,
      "▁४८": 6378,
      "▁भागने": 6379,
      "▁प्रासंगिक": 6380,
      "▁लीग": 6381,
      "▁लाइस": 6382,
      "ानुभूति": 6383,
      "▁राक्ष": 6384,
      "चंद": 6385,
      "लीवुड": 6386,
      "▁करूँगा": 6387,
      "▁चिट": 6388,
      "▁_,": 6389,
      "▁फिस": 6390,
      "▁ससुरा": 6391,
      "▁साक्षरता": 6392,
      "▁पाठ्यक्रम": 6393,
      "▁नेटवर्क": 6394,
      "▁कारा": 6395,
      "▁लड़कों": 6396,
      "▁रखा।": 6397,
      "▁कोविड": 6398,
      "▁फर्": 6399,
      "▁भूत": 6400,
      "▁खरीदारी": 6401,
      "ारह": 6402,
      "▁आत्महत्या": 6403,
      "▁संशोधन": 6404,
      "▁२०१६": 6405,
      "▁लाए": 6406,
      "▁रक": 6407,
      "▁विद्र": 6408,
      "▁लिस्ट": 6409,
      "ंतरित": 6410,
      "▁विद्वान": 6411,
      "▁रौ": 6412,
      "▁टेक": 6413,
      "▁सहानुभूति": 6414,
      "▁नु": 6415,
      "राल": 6416,
      "▁सुल": 6417,
      "कृष्ण": 6418,
      "▁पेट्रोल": 6419,
      "▁चौरा": 6420,
      "२८": 6421,
      "४४": 6422,
      "▁जल्दबाजी": 6423,
      "स्पे": 6424,
      "९९": 6425,
      "▁साहेब": 6426,
      "▁उलझ": 6427,
      "▁सेकंड": 6428,
      "▁देखो": 6429,
      "▁बुद्धिमान": 6430,
      "▁_]": 6431,
      "▁लगऽ": 6432,
      "▁करेगी।": 6433,
      "▁उल्ल": 6434,
      "▁मंग": 6435,
      "▁इंद्र": 6436,
      "सरण": 6437,
      "▁अनाज": 6438,
      "७०": 6439,
      "स्वा": 6440,
      "▁खाद": 6441,
      "▁खुर": 6442,
      "▁टुकड़ा": 6443,
      "▁इंजन": 6444,
      "▁स्ना": 6445,
      "▁रोम": 6446,
      "शीलता": 6447,
      "▁विरुद्ध": 6448,
      "▁संपन्न": 6449,
      "३,": 6450,
      "▁दिसम्बर": 6451,
      "▁बगी": 6452,
      "ारायण": 6453,
      "▁बोर": 6454,
      "ध्याय": 6455,
      "▁मांगों": 6456,
      "▁पेंट": 6457,
      "▁इया": 6458,
      "्रेन": 6459,
      "▁करू": 6460,
      "▁फुटबॉल": 6461,
      "कारों": 6462,
      "गरानी": 6463,
      "▁हस्तक्षेप": 6464,
      "▁२०१८": 6465,
      "▁तर्कसंगत": 6466,
      "▁होगी,": 6467,
      "▁अग्रवाल": 6468,
      "ृत्त": 6469,
      "▁नोक": 6470,
      "▁भरने": 6471,
      "▁समझौता": 6472,
      "ोजक": 6473,
      "▁भाष": 6474,
      "▁सख्त": 6475,
      "▁रघु": 6476,
      "तिष्क": 6477,
      "▁स्मिथ": 6478,
      "स्टा": 6479,
      "▁बोझ": 6480,
      "▁फर्जी": 6481,
      "▁पइसा": 6482,
      "▁शेख": 6483,
      "ईओ": 6484,
      "कश": 6485,
      "▁रूसी": 6486,
      "पता": 6487,
      "क्ष्म": 6488,
      "▁क्रिस्ट": 6489,
      "▁जानबूझ": 6490,
      "▁चाची": 6491,
      "▁हर्ष": 6492,
      "वानिव": 6493,
      "१,": 6494,
      "▁मुसलमान": 6495,
      "▁पसंदीदा": 6496,
      "ाप्ति": 6497,
      "तेक": 6498,
      "▁१९५": 6499,
      "ष्टाचार": 6500,
      "▁लुई": 6501,
      "▁घंटों": 6502,
      "हट": 6503,
      "▁तीर्थ": 6504,
      "▁एसोसिएशन": 6505,
      "▁कृत": 6506,
      "▁नग": 6507,
      "▁कोरिया": 6508,
      "▁लंबाई": 6509,
      "▁लोगो": 6510,
      "▁समय,": 6511,
      "▁पुजारी": 6512,
      "▁हिंसा": 6513,
      "▁गईं।": 6514,
      "▁निकाली": 6515,
      "्फ": 6516,
      "▁अइल": 6517,
      "▁टॉ": 6518,
      "नियाँ": 6519,
      "▁त्वचा": 6520,
      "क्षिप्त": 6521,
      "-ड": 6522,
      "▁ओकरे": 6523,
      "बरी": 6524,
      "ंगी।": 6525,
      "▁पेपर": 6526,
      "▁लगते": 6527,
      "▁केतना": 6528,
      "▁निगरानी": 6529,
      "▁चाहत": 6530,
      "▁व्यवस्थित": 6531,
      "▁केन": 6532,
      "▁रद्द": 6533,
      "▁वर्णित": 6534,
      "वाड़ी": 6535,
      "▁बेहो": 6536,
      "▁सामुदायिक": 6537,
      "▁सहन": 6538,
      "▁याता": 6539,
      "▁गईल": 6540,
      "▁मार्केट": 6541,
      "▁मिठाई": 6542,
      "▁मुक्ति": 6543,
      "▁मेहरारू": 6544,
      "बस": 6545,
      "▁कहला": 6546,
      "▁मों": 6547,
      "▁अनुसरण": 6548,
      "▁सदन": 6549,
      "▁प्रयासों": 6550,
      "▁गला": 6551,
      "▁संक्रमण": 6552,
      "▁इंदौर": 6553,
      "▁नाय": 6554,
      "▁मंजूरी": 6555,
      "दीश": 6556,
      "▁गोवर्धन": 6557,
      "-बा": 6558,
      "क्की": 6559,
      "च्चार": 6560,
      "▁नागरिकों": 6561,
      "▁बाहों": 6562,
      "▁वैध": 6563,
      "▁टेस्ट": 6564,
      "बेर": 6565,
      "्थ": 6566,
      "▁सम्प": 6567,
      "४५": 6568,
      "▁रिज": 6569,
      "▁मुज": 6570,
      "▁सकल": 6571,
      "▁जगत": 6572,
      "▁लेडी": 6573,
      "▁सिम": 6574,
      "▁संसाधन": 6575,
      "▁अवल": 6576,
      "▁महिमा": 6577,
      "▁कैद": 6578,
      "▁गव": 6579,
      "▁जिलाध्यक्ष": 6580,
      "▁तप": 6581,
      "▁खैर,": 6582,
      "▁वितरित": 6583,
      "▁अन्यथा": 6584,
      "दिक": 6585,
      "▁जाहिर": 6586,
      "▁ऐक्ट": 6587,
      "▁सेवानिव": 6588,
      "▁साइकिल": 6589,
      "▁लंपी": 6590,
      "▁वी.": 6591,
      "्ती": 6592,
      "▁जोरदार": 6593,
      "▁हिमालय": 6594,
      "▁ब्राह्मण": 6595,
      "▁मानद": 6596,
      "कता": 6597,
      "▁नन": 6598,
      "▁वर्गी": 6599,
      "▁एंट": 6600,
      "्टे": 6601,
      "▁लॉर्ड": 6602,
      "▁पीड़िता": 6603,
      "▁जानवरों": 6604,
      "▁आपदा": 6605,
      "▁संक्षिप्त": 6606,
      "▁बालक": 6607,
      "▁\"नहीं": 6608,
      "▁सप्लाई": 6609,
      "▁किरण": 6610,
      "कर्म": 6611,
      "▁मिलेगा।": 6612,
      "▁अखबार": 6613,
      "३५": 6614,
      "श्ता": 6615,
      "▁अतिक्रमण": 6616,
      "▁बैग": 6617,
      "▁बैल": 6618,
      "▁बोतल": 6619,
      "▁उल्लंघ": 6620,
      "▁तो,": 6621,
      "▁उत्प": 6622,
      "▁क्रिस": 6623,
      "▁एडी": 6624,
      "▁बाज": 6625,
      "शाक": 6626,
      "▁संगे": 6627,
      "▁५५": 6628,
      "▁जेम्स": 6629,
      "▁गिरफ्तार:": 6630,
      "▁साक्ष्य": 6631,
      "जाने": 6632,
      "▁भरत": 6633,
      "▁बचपन": 6634,
      "▁बहिन": 6635,
      "९०": 6636,
      "▁स्पी": 6637,
      "▁सुता": 6638,
      "▁भेजे": 6639,
      "▁पिक": 6640,
      "▁मोताबिक": 6641,
      "▁जिनकी": 6642,
      "▁ढांच": 6643,
      "ल्हा": 6644,
      "कै": 6645,
      "२७": 6646,
      "क्वा": 6647,
      "▁पाण्डेय": 6648,
      "▁ग्रीन": 6649,
      "▁अर्ज": 6650,
      "▁भ्रष्टाचार": 6651,
      "चिका": 6652,
      "▁कश्मीर": 6653,
      "▁समग्र": 6654,
      "▁अंधेरा": 6655,
      "▁पुण": 6656,
      "▁जोड़ने": 6657,
      "▁निंदा": 6658,
      "▁पार्ट": 6659,
      "▁पेशे": 6660,
      "▁शून्य": 6661,
      "▁गणित": 6662,
      "टी,": 6663,
      "▁मध्यम": 6664,
      "▁मार्क": 6665,
      "▁सुनकर": 6666,
      "▁तमिल": 6667,
      "▁माला": 6668,
      "▁शोभा": 6669,
      "▁सोचता": 6670,
      "▁विडियो": 6671,
      "सच": 6672,
      "बाज": 6673,
      "▁साहित्यिक": 6674,
      "लिन": 6675,
      "सायन": 6676,
      "▁टीका": 6677,
      "हिता": 6678,
      "▁कार्यक्रमों": 6679,
      "▁आइए": 6680,
      "२,": 6681,
      "▁औपचारिक": 6682,
      "▁बांग": 6683,
      "▁जड़": 6684,
      "▁दीहल": 6685,
      "▁तेर": 6686,
      "ोग्रा": 6687,
      "▁रेडियो": 6688,
      "▁आश्चर्यचक": 6689,
      "▁कोड": 6690,
      "▁करबाक": 6691,
      "▁हालात": 6692,
      "▁खेतों": 6693,
      "मस": 6694,
      "वाज": 6695,
      "▁जगहों": 6696,
      "▁मस्तिष्क": 6697,
      "▁हल्की": 6698,
      "▁यातायात": 6699,
      "▁डब्ल्यू.": 6700,
      "▁लेट": 6701,
      "ुलेंस": 6702,
      "▁आउट": 6703,
      "▁खेद": 6704,
      "ोड": 6705,
      "▁भविष्यवाणी": 6706,
      "▁मोन": 6707,
      "▁बैंड": 6708,
      "वाहा": 6709,
      "▁काल्हु": 6710,
      "▁रहलें।": 6711,
      "▁बाति": 6712,
      "▁अनुसू": 6713,
      "▁अंधेरे": 6714,
      "▁२०१४": 6715,
      "▁सैं": 6716,
      "▁समस्त": 6717,
      "▁पक्षी": 6718,
      "्दा": 6719,
      "▁ऐक्ट्रेस": 6720,
      "भंगा": 6721,
      "-त": 6722,
      "▁प्रस्तु": 6723,
      "▁उनको": 6724,
      "▁सीजन": 6725,
      "▁अभिनय": 6726,
      "▁केश": 6727,
      "▁एत": 6728,
      "▁सूक्ष्म": 6729,
      "▁मन्दिर": 6730,
      "▁लाइसेंस": 6731,
      "लील": 6732,
      "▁योगी": 6733,
      "▁कस्बे": 6734,
      "▁गुर्जर": 6735,
      "▁वैक": 6736,
      "▁नवीन": 6737,
      "खिन": 6738,
      "▁दाल": 6739,
      "ेली": 6740,
      "कड़ा": 6741,
      "▁जानना": 6742,
      "▁स्ट्रीट": 6743,
      "▁मचा": 6744,
      "सेल": 6745,
      "▁बइठल": 6746,
      "ॉर्ट": 6747,
      "▁भूप": 6748,
      "▁पैमाने": 6749,
      "धिकरण": 6750,
      "▁यथ": 6751,
      "▁विधेय": 6752,
      "-ल": 6753,
      "▁उन्": 6754,
      "▁जुर्म": 6755,
      "फॉ": 6756,
      "▁खार": 6757,
      "▁है\"": 6758,
      "▁विष्णु": 6759,
      "▁इनकी": 6760,
      "िंग,": 6761,
      "▁समन्व": 6762,
      "ार्थी": 6763,
      "▁कइसन": 6764,
      "▁फ्रे": 6765,
      "▁हेनरी": 6766,
      "▁घोड़ा": 6767,
      "▁पेरिस": 6768,
      "▁बढ़ता": 6769,
      "▁जुआ": 6770,
      "▁शरण": 6771,
      "▁छेद": 6772,
      "▁केॅ": 6773,
      "▁धक्का": 6774,
      "▁अन्तर": 6775,
      "▁दुष्क": 6776,
      "▁अवस्थित": 6777,
      "दित": 6778,
      "▁चौथा": 6779,
      "▁स्वीकृति": 6780,
      "▁चीज़ों": 6781,
      "▁३.": 6782,
      "फिर": 6783,
      "▁टन": 6784,
      "▁बेकार": 6785,
      "▁घोटा": 6786,
      "▁सपने": 6787,
      "▁मुड़कर": 6788,
      "▁आति": 6789,
      "ंकार": 6790,
      "काया": 6791,
      "इंट": 6792,
      "▁चलती": 6793,
      "▁पेन": 6794,
      "▁अनुश": 6795,
      "▁पलट": 6796,
      "▁अधि": 6797,
      "▁मानता": 6798,
      "▁पाली": 6799,
      "▁मरम्मत": 6800,
      "▁कैप्टन": 6801,
      "▁बला": 6802,
      "▁मौन": 6803,
      "कुमारी": 6804,
      "▁जगदीश": 6805,
      "ुख": 6806,
      "▁देब": 6807,
      "कोर": 6808,
      "▁अवगत": 6809,
      "▁दरबार": 6810,
      "▁जयंती": 6811,
      "▁आरती": 6812,
      "▁सेवाओं": 6813,
      "▁अभिषेक": 6814,
      "▁महत्": 6815,
      "▁नायक": 6816,
      "▁सालों": 6817,
      "▁आश्चर्यचकित": 6818,
      "▁जिंदगी": 6819,
      "▁हेड": 6820,
      "मिन": 6821,
      "सरे": 6822,
      "▁तख": 6823,
      "▁आह्वान": 6824,
      "▁क्लास": 6825,
      "▁उल्लंघन": 6826,
      "▁गंग": 6827,
      "▁प्रेस": 6828,
      "उन्होंने": 6829,
      "६,": 6830,
      "▁बताए": 6831,
      "▁प्यारे": 6832,
      "▁काव्य": 6833,
      "१३": 6834,
      "▁नरक": 6835,
      "व,": 6836,
      "▁भूरे": 6837,
      "▁उद्देश्यों": 6838,
      "▁सकें": 6839,
      "▁लगती": 6840,
      "▁रहा,": 6841,
      "▁दक्षिणी": 6842,
      "▁कयल": 6843,
      "पाली": 6844,
      "▁नाज": 6845,
      "▁नाइट": 6846,
      "▁विज": 6847,
      "▁चैंप": 6848,
      "▁डॉक्टरों": 6849,
      "▁पाइप": 6850,
      "▁रहली": 6851,
      "▁रहेगी।": 6852,
      "▁दुनू": 6853,
      "▁नमू": 6854,
      "▁चार्ल्स": 6855,
      "▁सब्जी": 6856,
      "▁सर्वो": 6857,
      "▁टुकड़ों": 6858,
      "विन": 6859,
      "▁रत्": 6860,
      "▁आक्रो": 6861,
      "▁स्टेडियम": 6862,
      "▁फेल": 6863,
      "▁टोक": 6864,
      "क्षेत्र": 6865,
      "▁पदाधिकारियों": 6866,
      "▁भेट": 6867,
      "धाना": 6868,
      "▁बेहद": 6869,
      "▁समझाने": 6870,
      "न।": 6871,
      "ोंग": 6872,
      "▁पूछा,": 6873,
      "▁बुक": 6874,
      "▁महीनों": 6875,
      "▁हीं": 6876,
      "वट": 6877,
      "▁नारे": 6878,
      "▁अतना": 6879,
      "जीवन": 6880,
      "ङ्ग": 6881,
      "▁ऊपरी": 6882,
      "▁आंखों": 6883,
      "▁ब्रिटेन": 6884,
      "कारात्मक": 6885,
      "▁सौर": 6886,
      "▁लांस": 6887,
      "▁निकला": 6888,
      "▁पढ़े": 6889,
      "▁ऋण": 6890,
      "▁ब्रह्मांड": 6891,
      "फ्तार": 6892,
      "▁नऽ": 6893,
      "▁क्रॉस": 6894,
      "▁गोल्ड": 6895,
      "▁वाई": 6896,
      "▁करेंगे,": 6897,
      "ौक": 6898,
      "▁धातु": 6899,
      "▁प्रोग्राम": 6900,
      "गेट": 6901,
      "▁चेयर": 6902,
      "▁उत्पादों": 6903,
      "▁सीसीटीवी": 6904,
      "८०": 6905,
      "▁रेत": 6906,
      "▁सुभाष": 6907,
      "▁यहूदी": 6908,
      "▁छात्राओं": 6909,
      "▁दाखिल": 6910,
      "▁बहुम": 6911,
      "▁मनाने": 6912,
      "▁हिर": 6913,
      "▁सुंदरता": 6914,
      "▁दुष्कर्म": 6915,
      "क्ताओं": 6916,
      "४,": 6917,
      "विश्वास": 6918,
      "ोरिया": 6919,
      "▁२०१५": 6920,
      "▁चुरा": 6921,
      "▁हाईवे": 6922,
      "▁वायु": 6923,
      "▁करियर": 6924,
      "▁लम": 6925,
      "अन": 6926,
      "▁हथिन": 6927,
      "▁आचार्य": 6928,
      "कड़": 6929,
      "▁फ़िल": 6930,
      "▁देवी,": 6931,
      "▁एव": 6932,
      "▁जे.": 6933,
      "▁निर्देशक": 6934,
      "लपुर": 6935,
      "रोध": 6936,
      "मुना": 6937,
      "▁बर्तन": 6938,
      "▁नञ": 6939,
      "▁३९": 6940,
      "▁खरीदने": 6941,
      "▁अथवा": 6942,
      "▁कोना": 6943,
      "▁गंदगी": 6944,
      "▁अपराधियों": 6945,
      "▁बताया।": 6946,
      "▁प्रतिबि": 6947,
      "▁ढक": 6948,
      "सिया": 6949,
      "▁झर": 6950,
      "▁बाला": 6951,
      "▁विविधता": 6952,
      "▁ट्रैक": 6953,
      "▁उद्यम": 6954,
      "▁मनीष": 6955,
      "सेफ": 6956,
      "▁परमाणु": 6957,
      "▁नित": 6958,
      "▁नाल": 6959,
      "▁विश्वक": 6960,
      "▁शीर्षक": 6961,
      "तू": 6962,
      "दरा": 6963,
      "▁जानबूझकर": 6964,
      "फार्म": 6965,
      "▁बाधित": 6966,
      "कांत": 6967,
      "िज्य": 6968,
      "जुट": 6969,
      "▁पापा": 6970,
      "लोड": 6971,
      "▁ध्वनि": 6972,
      "▁व्यर्थ": 6973,
      "निष्ठ": 6974,
      "बाड़ी": 6975,
      "▁इहो": 6976,
      "▁डेल": 6977,
      "▁मिलन": 6978,
      "▁मुआव": 6979,
      "▁कड़": 6980,
      "▁जस": 6981,
      "▁ट्वी": 6982,
      "▁सिंग": 6983,
      "▁मेज़": 6984,
      "▁हुनकर": 6985,
      "▁एलि": 6986,
      "णात्मक": 6987,
      "▁स्पेशल": 6988,
      "▁\"द": 6989,
      "▁कमर": 6990,
      "▁पोशाक": 6991,
      "घाट": 6992,
      "▁करो,": 6993,
      "▁अंगू": 6994,
      "▁स्नातक": 6995,
      "झी": 6996,
      "▁बब": 6997,
      "काय": 6998,
      "काता": 6999,
      "▁तुम्हारी": 7000,
      "▁हल्के": 7001,
      "ूंकि": 7002,
      "▁दुर": 7003,
      "▁करम": 7004,
      "▁विपरीत,": 7005,
      "▁वार्ष": 7006,
      "उट": 7007,
      "▁जुन": 7008,
      "▁सुरु": 7009,
      "▁मुर्": 7010,
      "▁जापान": 7011,
      "-दे": 7012,
      "कीर्ण": 7013,
      "▁अश्": 7014,
      "बड़ी": 7015,
      "▁आधी": 7016,
      "▁कामया": 7017,
      "▁ब्यू": 7018,
      "▁जखन": 7019,
      "▁उग": 7020,
      "▁उपभो": 7021,
      "▁ग्ल": 7022,
      "ौज": 7023,
      "णिज्य": 7024,
      "▁कौर": 7025,
      "▁सेव": 7026,
      "▁सुस": 7027,
      "▁महेंद्र": 7028,
      "▁निराश": 7029,
      "▁साहू": 7030,
      "▁तारा": 7031,
      "▁जने": 7032,
      "▁बेचने": 7033,
      "भूत": 7034,
      "▁तनी": 7035,
      "▁आपसी": 7036,
      "राइल": 7037,
      "▁जन्मदिन": 7038,
      "▁घायलों": 7039,
      "▁महार": 7040,
      "पटा": 7041,
      "▁भाषाओं": 7042,
      "▁कर्मी": 7043,
      "▁कैसा": 7044,
      "▁इस्त": 7045,
      "पाही": 7046,
      "▁कराया।": 7047,
      "ंबित": 7048,
      "खण्ड": 7049,
      "्रु": 7050,
      "-सं": 7051,
      "▁चिह्नित": 7052,
      "▁प्रदूषण": 7053,
      "▁जह": 7054,
      "▁छोड़ा": 7055,
      "▁राठ": 7056,
      "▁माया": 7057,
      "▁विशेषताओं": 7058,
      "▁नाहीं": 7059,
      "▁शीत": 7060,
      "▁स्क्रीन": 7061,
      "▁रेप": 7062,
      "▁नजदी": 7063,
      "२१": 7064,
      "▁मेट": 7065,
      "सेज": 7066,
      "बंधन": 7067,
      "▁उजागर": 7068,
      "▁पठ": 7069,
      "सन,": 7070,
      "▁तैर": 7071,
      "बहुत": 7072,
      "▁सरा": 7073,
      "▁मांगी": 7074,
      "▁ससुराल": 7075,
      "▁अजन": 7076,
      "▁टिम": 7077,
      "▁पहलू": 7078,
      "धारा": 7079,
      "▁भी।": 7080,
      "▁कुत्ते": 7081,
      "▁प्रबंधक": 7082,
      "▁सार्वभौ": 7083,
      "▁एकजुट": 7084,
      "▁शिश": 7085,
      "▁कहें": 7086,
      "▁थक": 7087,
      "हरण": 7088,
      "▁दरभंगा": 7089,
      "▁रकबा": 7090,
      "▁पंक": 7091,
      "▁बलिया": 7092,
      "▁सुन्दर": 7093,
      "वाना": 7094,
      "▁झगड़ा": 7095,
      "▁आवत": 7096,
      "▁मुद्रा": 7097,
      "▁चूंकि": 7098,
      "▁हैं!": 7099,
      "▁भेजने": 7100,
      "▁ह्यू": 7101,
      "▁दुर्ग": 7102,
      "▁अइस": 7103,
      "▁काटने": 7104,
      "स्सा": 7105,
      "एं,": 7106,
      "▁खाड़ी": 7107,
      "▁अमीर": 7108,
      "रीज": 7109,
      "▁रफ्तार": 7110,
      "▁छलाह": 7111,
      "▁राजन": 7112,
      "▁प्रतिस्प": 7113,
      "केशन": 7114,
      "▁लोग,": 7115,
      "२६": 7116,
      "▁याचिका": 7117,
      "▁नाट": 7118,
      "खु": 7119,
      "▁आगू": 7120,
      "▁खेलने": 7121,
      "▁मेघ": 7122,
      "पाई": 7123,
      "▁प्रत्यक्ष": 7124,
      "▁अंतरराष्ट्रीय": 7125,
      "▁;": 7126,
      "▁\"तो": 7127,
      "▁कराए": 7128,
      "▁उर्": 7129,
      "द्वारा": 7130,
      "फ्फर": 7131,
      "▁गाँधी": 7132,
      "▁सीढ़ियों": 7133,
      "▁गूगल": 7134,
      "▁खाय": 7135,
      "▁डरा": 7136,
      "▁प्राचार्य": 7137,
      "ंत्रिक": 7138,
      "ंटा": 7139,
      "▁खुली": 7140,
      "▁संतुल": 7141,
      "स्टल": 7142,
      "ोध्या": 7143,
      "▁भीम": 7144,
      "▁ज्व": 7145,
      "▁इंसान": 7146,
      "▁महंगा": 7147,
      "हूं": 7148,
      "▁कपड़ों": 7149,
      "▁कहत": 7150,
      "सचिव": 7151,
      "्रोल": 7152,
      "▁लेती": 7153,
      "▁गायक": 7154,
      "रक": 7155,
      "्यौ": 7156,
      "▁लिंक": 7157,
      "▁उठाए": 7158,
      "▁बताई": 7159,
      "▁उन्न": 7160,
      "▁छेड़": 7161,
      "▁उग्र": 7162,
      "च्ची": 7163,
      "च्चारण": 7164,
      "डेट": 7165,
      "रूप": 7166,
      "▁सकें।": 7167,
      "▁पैरा": 7168,
      "▁उपरा": 7169,
      "▁बिगड़": 7170,
      "जूदा": 7171,
      "▁दृढ़ता": 7172,
      "▁परत": 7173,
      "▁लोकतंत्र": 7174,
      "▁ठेकेदार": 7175,
      "▁पैं": 7176,
      "▁प्रस्तावित": 7177,
      "▁लौटने": 7178,
      "▁कन्या": 7179,
      "▁टैक्स": 7180,
      "▁कउ": 7181,
      "▁झप": 7182,
      "▁सास": 7183,
      "ुद्ध": 7184,
      "▁थाः": 7185,
      "▁वर्ल्ड": 7186,
      "▁बलिदान": 7187,
      "बेल": 7188,
      "▁बन्द": 7189,
      "▁पारित": 7190,
      "▁अरुण": 7191,
      "▁शक": 7192,
      "वाया": 7193,
      "▁कारन": 7194,
      "▁जेन": 7195,
      "▁मिलेगा": 7196,
      "सभक": 7197,
      "▁रणनीति": 7198,
      "▁विरासत": 7199,
      "▁सिपाही": 7200,
      "▁बोलते": 7201,
      "▁गवर्न": 7202,
      "लान": 7203,
      "▁व्रत": 7204,
      "▁पुत": 7205,
      "तेरस": 7206,
      "▁चलचित्र": 7207,
      "▁तहरी": 7208,
      "▁हमरो": 7209,
      "▁सीबी": 7210,
      "▁झाड़": 7211,
      "▁श्रद्धालु": 7212,
      "▁देलन": 7213,
      "▁जोन": 7214,
      "▁प्राइवेट": 7215,
      "स।": 7216,
      "▁गुफा": 7217,
      "उथ": 7218,
      "▁होश": 7219,
      "३७": 7220,
      "▁भगत": 7221,
      "▁असमर्थ": 7222,
      "शप": 7223,
      "▁सेवक": 7224,
      "▁मौजूदा": 7225,
      "▁किसिम": 7226,
      "▁कुशल": 7227,
      "▁पावर": 7228,
      "▁उपज": 7229,
      "▁जैन,": 7230,
      "▁गौतम": 7231,
      "▁स्थानांतरित": 7232,
      "गीर": 7233,
      "▁के।": 7234,
      "▁एरिया": 7235,
      "▁दिखने": 7236,
      "▁घुटने": 7237,
      "नाटक": 7238,
      "▁बिहारी": 7239,
      "द्": 7240,
      "षित": 7241,
      "▁प्रसन्न": 7242,
      "▁असाधारण": 7243,
      "▁शुरुआती": 7244,
      "▁दर्शाता": 7245,
      "तिनि": 7246,
      "▁घबरा": 7247,
      "▁आगरा": 7248,
      "▁प्रधाना": 7249,
      "▁उपश": 7250,
      "▁रक्तदान": 7251,
      "दना": 7252,
      "▁सिया": 7253,
      "▁पहुंची।": 7254,
      "हक": 7255,
      "▁ग्": 7256,
      "▁परिस्थिति": 7257,
      "मर्श": 7258,
      "्यूट": 7259,
      "▁भागों": 7260,
      "▁मरद": 7261,
      "बैत": 7262,
      "लीप": 7263,
      "▁ओइ": 7264,
      "▁झलक": 7265,
      "▁है!\"": 7266,
      "▁रैं": 7267,
      "जेपी": 7268,
      "▁हो?": 7269,
      "▁कैला": 7270,
      "▁नकारात्मक": 7271,
      "▁क्स": 7272,
      "▁दलित": 7273,
      "▁दोस्ती": 7274,
      "▁ज्ञात": 7275,
      "▁आबि": 7276,
      "▁लोहे": 7277,
      "▁व्यापारियों": 7278,
      "▁विवा": 7279,
      "ंतरण": 7280,
      "▁धकेल": 7281,
      "▁मार्गदर्शन": 7282,
      "व्या": 7283,
      "दाताओं": 7284,
      "▁फूलों": 7285,
      "▁जमान": 7286,
      "▁रहित": 7287,
      "▁रहेगा": 7288,
      "▁अन्याय": 7289,
      "▁मुकाबला": 7290,
      "रियन": 7291,
      "▁साइट": 7292,
      "▁संग्र": 7293,
      "▁अगला": 7294,
      "कर्ताओं": 7295,
      "▁फ्रें": 7296,
      "▁आस्था": 7297,
      "▁देवर": 7298,
      "ल्पन": 7299,
      "▁नरम": 7300,
      "▁रिचर्ड": 7301,
      "पूर": 7302,
      "▁प्रकरण": 7303,
      "▁३००": 7304,
      "▁अवलोकन": 7305,
      "स्थापित": 7306,
      "▁छै।": 7307,
      "▁क़": 7308,
      "▁काँ": 7309,
      "▁स्मार्ट": 7310,
      "▁विश्वसनीय": 7311,
      "▁एक-एक": 7312,
      "९,": 7313,
      "▁\"इस": 7314,
      "▁दर्शकों": 7315,
      "▁जहर": 7316,
      "▁एथ": 7317,
      "▁भेड़": 7318,
      "▁ग्री": 7319,
      "▁तीव्र": 7320,
      "िलेश": 7321,
      "▁पहिने": 7322,
      "न्या": 7323,
      "▁रखें।": 7324,
      "▁बढ़ी": 7325,
      "▁जुटी": 7326,
      "▁डैनी": 7327,
      "▁बाय": 7328,
      "▁फोर": 7329,
      "▁दो,": 7330,
      "▁पीटर": 7331,
      "▁टेलर": 7332,
      "▁बरसात": 7333,
      "▁स्मार": 7334,
      "टेज": 7335,
      "खाने": 7336,
      "▁मामिला": 7337,
      "कुछ": 7338,
      "्रमित": 7339,
      "▁गाव": 7340,
      "वाड़": 7341,
      "▁सुग": 7342,
      "▁अस्थायी": 7343,
      "ो॰": 7344,
      "िकाओं": 7345,
      "▁गइले": 7346,
      "कट": 7347,
      "▁गाली": 7348,
      "ार्किक": 7349,
      "▁शहीद": 7350,
      "▁प्रश्नों": 7351,
      "ोहित": 7352,
      "▁इस्रा": 7353,
      "▁तीर": 7354,
      "▁उभर": 7355,
      "▁सुने": 7356,
      "-पी": 7357,
      "▁'ए": 7358,
      "▁यूनियन": 7359,
      "▁अधिव": 7360,
      "▁चाँ": 7361,
      "▁२०१२": 7362,
      "▁कचरा": 7363,
      "▁बांग्ला": 7364,
      "▁संरक्षित": 7365,
      "▁दफ": 7366,
      "▁खींचा": 7367,
      "▁जाके": 7368,
      "▁करेगी": 7369,
      "▁बरी": 7370,
      "▁निल": 7371,
      "▁पायल": 7372,
      "▁श्रीवास्तव": 7373,
      "फाई": 7374,
      "▁अठ": 7375,
      "जन्य": 7376,
      "▁पुछ": 7377,
      "निहार": 7378,
      "▁मैक्स": 7379,
      "▁पत्रों": 7380,
      "▁धुंध": 7381,
      "पानी": 7382,
      "▁पढ": 7383,
      "▁प्रोड": 7384,
      "ज़ार": 7385,
      "िवेदी": 7386,
      "▁करवाई": 7387,
      "▁होली": 7388,
      "▁बुराई": 7389,
      "▁काशी": 7390,
      "▁देगा।": 7391,
      "▁ऋषि": 7392,
      "▁सिस": 7393,
      "कालय": 7394,
      "▁ठंडा": 7395,
      "गीत": 7396,
      "रोन": 7397,
      "▁गिरोह": 7398,
      "▁तूफान": 7399,
      "▁संदीप": 7400,
      "▁सरस्व": 7401,
      "▁चट": 7402,
      "▁सम्रा": 7403,
      "▁क्या?": 7404,
      "▁दिन,": 7405,
      "▁चैंपियन": 7406,
      "-छा": 7407,
      "घ्र": 7408,
      "▁शिखर": 7409,
      "▁आदित्य": 7410,
      "▁शर": 7411,
      "ंवर": 7412,
      "▁साक्षा": 7413,
      "▁अभ्यर्थ": 7414,
      "िवी": 7415,
      "▁प्रसारण": 7416,
      "३३": 7417,
      "िकन": 7418,
      "▁आँकड़ा": 7419,
      "▁संवेदनशील": 7420,
      "▁वंचित": 7421,
      "▁खाई": 7422,
      "▁जर्मनी": 7423,
      "ोरा": 7424,
      "▁बिख": 7425,
      "▁प्लान": 7426,
      "▁सिख": 7427,
      "▁बिआह": 7428,
      "ट्टे": 7429,
      "दर्श": 7430,
      "▁मवेश": 7431,
      "▁प्रस्तुति": 7432,
      "▁जुर्माना": 7433,
      "▁सीखा": 7434,
      "▁सर्वोच्च": 7435,
      "▁सोचे": 7436,
      "ंपिक": 7437,
      "▁दादी": 7438,
      "▁दहेज": 7439,
      "▁वाणिज्य": 7440,
      "▁हां": 7441,
      "लंका": 7442,
      "▁डाक्टर": 7443,
      "गुन": 7444,
      "▁हेम": 7445,
      "▁अभिनेता": 7446,
      "▁स्वच्छता": 7447,
      "स्पेक्टर": 7448,
      "पै": 7449,
      "▁)": 7450,
      "न्ड": 7451,
      "▁कृपा": 7452,
      "▁संदर्भित": 7453,
      "▁पौध": 7454,
      "▁बंदरगाह": 7455,
      "ंझ": 7456,
      "िपि": 7457,
      "▁पाउंड": 7458,
      "▁अलगा": 7459,
      "▁गाना": 7460,
      "▁धूल": 7461,
      "▁धनतेरस": 7462,
      "▁क्रांति": 7463,
      "▁खारिज": 7464,
      "▁इन्द": 7465,
      "▁दिव्या": 7466,
      "▁भोर": 7467,
      "▁यौन": 7468,
      "▁लिहले": 7469,
      "▁घाव": 7470,
      "▁खोलने": 7471,
      "▁उपशहरी": 7472,
      "▁सहर": 7473,
      "भूषण": 7474,
      "्ही": 7475,
      "▁रोशन": 7476,
      "▁काउंस": 7477,
      "बों": 7478,
      "▁सल": 7479,
      "▁कहां": 7480,
      "▁गिराव": 7481,
      "▁इस्लाम": 7482,
      "▁पुस्तकालय": 7483,
      "▁अहि": 7484,
      "थान": 7485,
      "भारत": 7486,
      "ावर": 7487,
      "▁तहसीलदार": 7488,
      "▁लगाना": 7489,
      "▁जेसी": 7490,
      "▁पहुँचने": 7491,
      "▁साहित्यकार": 7492,
      "कामना": 7493,
      "गोर": 7494,
      "▁हत्य": 7495,
      "साइकिल": 7496,
      "▁तोहरा": 7497,
      "▁अवतर": 7498,
      "▁पड़ी।": 7499,
      "४८": 7500,
      "▁जोड़े": 7501,
      "▁अफसर": 7502,
      "▁हिलाया": 7503,
      "▁बैठी": 7504,
      "स्पी": 7505,
      "▁ट्यू": 7506,
      "▁भती": 7507,
      "नाल्ड": 7508,
      "साइ": 7509,
      "७७": 7510,
      "िपल": 7511,
      "▁कानपुर": 7512,
      "▁खनन": 7513,
      "▁घूमते": 7514,
      "▁हई": 7515,
      "ल्पिक": 7516,
      "▁गया;": 7517,
      "▁अखिलेश": 7518,
      "▁केकरो": 7519,
      "▁मामूली": 7520,
      "ियोन": 7521,
      "▁टाइम": 7522,
      "ल्पनिक": 7523,
      "▁आजम": 7524,
      "▁इस्तमाल": 7525,
      "▁ऊँची": 7526,
      "▁मुजफ्फर": 7527,
      "▁गम": 7528,
      "▁रखल": 7529,
      "▁बेरोज": 7530,
      "▁जीते": 7531,
      "▁साफ-स": 7532,
      "▁नवम्बर": 7533,
      "▁आवि": 7534,
      "▁प्रदीप": 7535,
      "▁अरविंद": 7536,
      "▁प्रणाल": 7537,
      "ोली": 7538,
      "▁शनि": 7539,
      "▁घों": 7540,
      "▁इधर-उ": 7541,
      "जोरी": 7542,
      "▁कूल": 7543,
      "▁उच्चारण": 7544,
      "▁जनस": 7545,
      "▁साइबर": 7546,
      "▁फिसल": 7547,
      "हाई": 7548,
      "▁डाउन": 7549,
      "▁नारा": 7550,
      "▁डेम": 7551,
      "▁वसू": 7552,
      "जिकल": 7553,
      "▁उतनी": 7554,
      "▁खतम": 7555,
      "▁प्राधिकरण": 7556,
      "▁पर्वत": 7557,
      "ो।": 7558,
      "▁सवा": 7559,
      "▁बचे": 7560,
      "कालिक": 7561,
      "▁समूहों": 7562,
      "▁तहरीर": 7563,
      "▁वार्षिक": 7564,
      "▁पान": 7565,
      "▁परम्प": 7566,
      "▁राजमार्ग": 7567,
      "▁पीटा": 7568,
      "▁इधर-उधर": 7569,
      "▁सेक्टर": 7570,
      "ुसार": 7571,
      "▁थॉम": 7572,
      "▁बाघ": 7573,
      "▁सापेक्ष": 7574,
      "▁दो।": 7575,
      "▁लगलन": 7576,
      "▁मैडम": 7577,
      "▁विचित्र": 7578,
      "▁इलाहाबाद": 7579,
      "▁पासवान": 7580,
      "▁रखा,": 7581,
      "ंगों": 7582,
      "▁चाहिए?": 7583,
      "▁न्यूज": 7584,
      "▁पंकज": 7585,
      "▁से।": 7586,
      "▁दुन्न": 7587,
      "ंटिक": 7588,
      "२९": 7589,
      "▁जीन": 7590,
      "▁कैंप": 7591,
      "▁मुस": 7592,
      "▁सभ्यता": 7593,
      "हनी": 7594,
      "▁पौधे": 7595,
      "विज्ञान": 7596,
      "▁चित्रित": 7597,
      "▁बाध्य": 7598,
      "▁किशन": 7599,
      "▁राजेंद्र": 7600,
      "▁होंठों": 7601,
      "▁कठिनाई": 7602,
      "▁अपहरण": 7603,
      "▁सन्द": 7604,
      "▁प्रशंस": 7605,
      "▁मथ": 7606,
      "▁वाइ": 7607,
      "ानात्मक": 7608,
      ".५": 7609,
      "▁परिणामों": 7610,
      "▁जख्मी": 7611,
      "क़": 7612,
      "▁वाय": 7613,
      "▁फार्म": 7614,
      "▁रहेला": 7615,
      "▁चंद्रमा": 7616,
      "▁फू": 7617,
      "▁सरस्वती": 7618,
      "▁ट्रा": 7619,
      "▁मोती": 7620,
      "▁४६": 7621,
      "▁उनु": 7622,
      "रेक्टर": 7623,
      "▁बीजेपी": 7624,
      "▁सहारा": 7625,
      "▁आए,": 7626,
      "▁जाई।": 7627,
      "▁फ्ला": 7628,
      "▁आदिवासी": 7629,
      "▁बेहोश": 7630,
      "▁उहे": 7631,
      "▁देले": 7632,
      "▁रिया": 7633,
      "▁श्रो": 7634,
      "ट्ठी": 7635,
      "▁अयोध्या": 7636,
      "▁श्रेय": 7637,
      "▁असी": 7638,
      "धानिक": 7639,
      "▁उत्सुकता": 7640,
      "▁श्रीलंका": 7641,
      "▁पेशकश": 7642,
      "त:": 7643,
      "▁हों।": 7644,
      "वसाय": 7645,
      "▁सदा": 7646,
      "▁सरो": 7647,
      "कोर्ट": 7648,
      "▁अर्जुन": 7649,
      "▁शब्दार्थ": 7650,
      "ार्टमेंट": 7651,
      "▁अस्पता": 7652,
      "▁बावजूद,": 7653,
      "▁रोमांच": 7654,
      "स्पर": 7655,
      "ंकित": 7656,
      "मोर": 7657,
      "▁फीसदी": 7658,
      "िवेश": 7659,
      "दीय": 7660,
      "▁२०२३": 7661,
      "▁गिनती": 7662,
      "▁शूटिंग": 7663,
      "▁संयोजन": 7664,
      "▁\"अगर": 7665,
      "याल": 7666,
      "▁लापता": 7667,
      "▁असल": 7668,
      "▁विभागों": 7669,
      "▁डैन": 7670,
      "▁जिनसे": 7671,
      "प्रतिनि": 7672,
      "▁बैठने": 7673,
      "▁संयोजक": 7674,
      "▁कनाडा": 7675,
      "▁मरने": 7676,
      "ंद्रह": 7677,
      "ओ,": 7678,
      "▁मोटे": 7679,
      "▁कलम": 7680,
      "▁माफी": 7681,
      "▁निपटने": 7682,
      "▁प्रच": 7683,
      "▁फार": 7684,
      "▁विकेट": 7685,
      "र्मी": 7686,
      "ये।": 7687,
      "छी": 7688,
      "▁टूर्": 7689,
      "▁भागीदारी": 7690,
      "्ठी": 7691,
      "▁बक": 7692,
      "▁सीटों": 7693,
      "सभमे": 7694,
      "लिअइ": 7695,
      "ंसे": 7696,
      "▁मंदिरों": 7697,
      "▁वचन": 7698,
      "▁काल्पनिक": 7699,
      "▁माटी": 7700,
      "▁श्रेष्ठ": 7701,
      "▁मुकाबले": 7702,
      "▁ज़रूरत": 7703,
      "▁गुप्ता,": 7704,
      "▁पोर्टल": 7705,
      "▁फूट": 7706,
      "▁कंपनियों": 7707,
      "▁दायित्व": 7708,
      "एचसी": 7709,
      "▁वें": 7710,
      "▁भई": 7711,
      "▁माध": 7712,
      "▁आजाद": 7713,
      "▁उत": 7714,
      "वेदन": 7715,
      "▁इनहन": 7716,
      "▁बॉलीवुड": 7717,
      "▁\"ए": 7718,
      "प्स": 7719,
      "▁स्तंभ": 7720,
      "▁एश्टन": 7721,
      "▁सीनियर": 7722,
      "▁मीन": 7723,
      "डनी": 7724,
      "ड़का": 7725,
      "▁फ्रैंक": 7726,
      "▁लघु": 7727,
      "▁तार्किक": 7728,
      "▁महतो": 7729,
      "▁इंस्पेक्टर": 7730,
      "▁धारण": 7731,
      "ड़न": 7732,
      "00": 7733,
      "७,": 7734,
      "वादियों": 7735,
      "▁मरा": 7736,
      "▁६५": 7737,
      "▁दाव": 7738,
      "ग्रहण": 7739,
      "▁गड्ढे": 7740,
      "ॉड": 7741,
      "▁बहाल": 7742,
      "▁वैकल्पिक": 7743,
      "रेज": 7744,
      "▁काउंटी": 7745,
      "▁कर्नाटक": 7746,
      "ाहट": 7747,
      "ूर्ण": 7748,
      "स्पति": 7749,
      "▁दुर्लभ": 7750,
      "▁संस्थानों": 7751,
      "▁इंजीनियरिंग": 7752,
      "▁अवशेष": 7753,
      "▁हास्य": 7754,
      "पादन": 7755,
      "सिस": 7756,
      "▁बीमा": 7757,
      "▁बढ़ाया": 7758,
      "▁माइ": 7759,
      "▁सकत": 7760,
      "▁मानो": 7761,
      "▁निचले": 7762,
      "ोला": 7763,
      "▁जाएँगे": 7764,
      "▁पंद्रह": 7765,
      "▁लड़ने": 7766,
      "जक": 7767,
      "▁गंध": 7768,
      "▁उपदेश": 7769,
      "▁फैसले": 7770,
      "▁इस्राएल": 7771,
      "▁सुमित": 7772,
      "चेत": 7773,
      "▁लॉन्": 7774,
      "▁तत्वों": 7775,
      "▁ससुर": 7776,
      "▁सर्वेक्षण": 7777,
      "दृश्य": 7778,
      "▁जमाना": 7779,
      "खल": 7780,
      "नक": 7781,
      "▁दैत": 7782,
      "▁पेशेवर": 7783,
      "▁सत्या": 7784,
      "▁चचे": 7785,
      "▁मानवता": 7786,
      "▁साजिश": 7787,
      "८,": 7788,
      "▁मीना": 7789,
      "▁१९०": 7790,
      "▁डाॅ": 7791,
      "▁एकड़": 7792,
      "▁रोते": 7793,
      "▁समित": 7794,
      "▁प्या": 7795,
      "▁प्राण": 7796,
      "▁मंजिल": 7797,
      "▁परम्परा": 7798,
      "▁ट्व": 7799,
      "च,": 7800,
      "▁बीर": 7801,
      "▁रोका": 7802,
      "▁एट": 7803,
      "▁छे": 7804,
      "▁अधिकतर": 7805,
      "▁जनक": 7806,
      "▁रोमन": 7807,
      "▁गेम": 7808,
      "ोम": 7809,
      "▁घूर": 7810,
      "▁डिप्टी": 7811,
      "▁अवतरण": 7812,
      "▁आभार": 7813,
      "▁फैक्ट": 7814,
      "▁अफ्रीका": 7815,
      "▁छान": 7816,
      "▁दौरे": 7817,
      "▁पब्लिक": 7818,
      "नामेंट": 7819,
      "▁निकली": 7820,
      "▁होखत": 7821,
      "▁उत्पत्ति": 7822,
      "▁श्रद्धांजलि": 7823,
      "▁मोटरसाइकिल": 7824,
      "▁मदन": 7825,
      "▁छपरा": 7826,
      "▁हाथी": 7827,
      "▁विरोधाभास": 7828,
      "▁खेले": 7829,
      "▁बिस्त": 7830,
      "▁जैविक": 7831,
      "▁गिरावट": 7832,
      "▁अदा": 7833,
      "▁घरी": 7834,
      "▁प्रत्याशी": 7835,
      "▁विज्ञापन": 7836,
      "▁ब्ले": 7837,
      "▁राशन": 7838,
      "▁हीरा": 7839,
      "▁इस्ती": 7840,
      "▁गर्भव": 7841,
      "▁रोगी": 7842,
      "▁होले": 7843,
      "▁धै": 7844,
      "▁हाइड": 7845,
      "थल": 7846,
      "▁रहैत": 7847,
      "▁मार्ट": 7848,
      "▁क्रे": 7849,
      "▁इसको": 7850,
      "▁पग": 7851,
      "▁दोग": 7852,
      "▁\"श": 7853,
      "▁पादरी": 7854,
      "▁बाई": 7855,
      "जी,": 7856,
      "ूँकि": 7857,
      "▁अत्या": 7858,
      "▁वस्त्र": 7859,
      "▁२,": 7860,
      "▁सार्वभौमिक": 7861,
      "िणी": 7862,
      "्जप": 7863,
      "▁अनजान": 7864,
      "▁पोप": 7865,
      "▁लालू": 7866,
      "कला": 7867,
      "क्के": 7868,
      "▁सका।": 7869,
      "▁सतर्क": 7870,
      "▁जबरद": 7871,
      "३६": 7872,
      "▁रहला": 7873,
      "▁ललित": 7874,
      "▁ऋतु": 7875,
      "्यूल": 7876,
      "▁प्रको": 7877,
      "धर,": 7878,
      "्हन": 7879,
      "▁४४": 7880,
      "▁गठित": 7881,
      "▁दौरान,": 7882,
      "▁दुकानदार": 7883,
      "▁गीता": 7884,
      "▁शीघ्र": 7885,
      "▁तथ्यों": 7886,
      "▁उंगलियों": 7887,
      "नेशनल": 7888,
      "▁दै": 7889,
      "मपुर": 7890,
      "▁अश्व": 7891,
      "▁निर्देशन": 7892,
      "इयाँ": 7893,
      "▁जाले": 7894,
      "▁मेहमान": 7895,
      "▁यश": 7896,
      "▁टीमों": 7897,
      "▁मिले।": 7898,
      "▁चुने": 7899,
      "दूरी": 7900,
      "▁पराम": 7901,
      "▁लीटर": 7902,
      "▁दीवारों": 7903,
      "▁सम्राट": 7904,
      "जिद": 7905,
      "▁दिखता": 7906,
      "▁कंट्रोल": 7907,
      "▁अगिला": 7908,
      "▁केलक": 7909,
      "▁टूर्नामेंट": 7910,
      "▁जद": 7911,
      "▁सोचना": 7912,
      "ख़": 7913,
      "सीसी": 7914,
      "▁स्पष्टीकरण": 7915,
      "▁भुला": 7916,
      "▁एक्शन": 7917,
      "सोस": 7918,
      "▁आवंट": 7919,
      "▁साहू,": 7920,
      "▁प्रदर्शनी": 7921,
      "▁क्लिक": 7922,
      "▁नती": 7923,
      "▁लेलक": 7924,
      "न्नी": 7925,
      "▁उलझन": 7926,
      "▁ट्वीट": 7927,
      "▁बताना": 7928,
      "▁दुः": 7929,
      "वैज्ञानिक": 7930,
      "कूट": 7931,
      "बम": 7932,
      "बिया": 7933,
      "िकार": 7934,
      "▁जूते": 7935,
      "▁आविष्कार": 7936,
      "▁राजद": 7937,
      "ष्ठी": 7938,
      "तुर": 7939,
      "विदा": 7940,
      "▁अलर्ट": 7941,
      "▁उधार": 7942,
      "▁विधेयक": 7943,
      ":प": 7944,
      "▁चमकी": 7945,
      "▁नू": 7946,
      "▁एंटी": 7947,
      "▁औद्योग": 7948,
      "▁५६": 7949,
      "▁आओर": 7950,
      "▁बारा": 7951,
      "लांग": 7952,
      "▁पहलुओं": 7953,
      "▁ऊँचाई": 7954,
      "▁मान्य": 7955,
      "▁उम्मीदवारों": 7956,
      "▁दोबारा": 7957,
      "▁माइकल": 7958,
      "७५": 7959,
      "▁आई,": 7960,
      "न्त्र": 7961,
      "▁संकीर्ण": 7962,
      "▁पंख": 7963,
      "▁अवधारणाओं": 7964,
      "▁मूर्खतापूर्ण": 7965,
      "ैंस": 7966,
      "▁सोनी": 7967,
      "▁२०१०": 7968,
      "▁नह": 7969,
      "▁अखिल": 7970,
      "-पु": 7971,
      "▁पिटाई": 7972,
      "▁फॉर": 7973,
      "▁विद्रोह": 7974,
      "▁विला": 7975,
      "▁रिश्तेदार": 7976,
      "▁अर्चना": 7977,
      "खाना": 7978,
      "▁कार्यरत": 7979,
      "▁पर्यवे": 7980,
      "▁साँझ": 7981,
      "▁अंध": 7982,
      "▁गूं": 7983,
      "▁आयल": 7984,
      "मा,": 7985,
      "▁कमि": 7986,
      "▁पोख": 7987,
      "▁काका": 7988,
      "▁शुरूआ": 7989,
      "ने,": 7990,
      "▁ओपी": 7991,
      "▁जाएत": 7992,
      "▁टोला": 7993,
      "-छो": 7994,
      "▁भूगोल": 7995,
      "-छात्रा": 7996,
      "ब्स": 7997,
      "ौरी": 7998,
      "▁प्रवाह": 7999,
      "▁शिल": 8000,
      "▁पहुँ": 8001,
      "▁समझाया": 8002,
      "▁उपकरणों": 8003,
      "▁दिक्": 8004,
      "▁बाजारों": 8005,
      "▁आश्र": 8006,
      "ारी,": 8007,
      "जीपुर": 8008,
      "▁गिरी": 8009,
      "बंद": 8010,
      "▁लेंगे।": 8011,
      "बंदी": 8012,
      "▁अक्षर": 8013,
      "▁आगमन": 8014,
      "▁चरम": 8015,
      "▁सीओ": 8016,
      "▁बजाय,": 8017,
      "बेथ": 8018,
      "▁आनन्द": 8019,
      "▁खरीदी": 8020,
      "▁अब्द": 8021,
      "▁फ़िल्म": 8022,
      "▁उसको": 8023,
      "लें": 8024,
      "▁संप्र": 8025,
      "िस,": 8026,
      "▁जेना": 8027,
      "▁ग्वाल": 8028,
      "▁स्या": 8029,
      "▁पूछने": 8030,
      "▁मायने": 8031,
      "मानी": 8032,
      "▁सीढ़ी": 8033,
      "▁अधिकारों": 8034,
      "▁विश्वकर्मा": 8035,
      "ब।": 8036,
      "सिन": 8037,
      "▁रथ": 8038,
      "▁डेरा": 8039,
      "३४": 8040,
      "▁पैट": 8041,
      "▁डाइ": 8042,
      "▁धैर्य": 8043,
      "▁प्रमो": 8044,
      "पाठी": 8045,
      "▁मिलियन": 8046,
      "▁कार्यकाल": 8047,
      "▁निर्दोष": 8048,
      "ब्रे": 8049,
      "▁दांत": 8050,
      "▁कहा।\"": 8051,
      "वली": 8052,
      "ोने": 8053,
      "▁ले।": 8054,
      "▁कोलकाता": 8055,
      "▁हमरे": 8056,
      "▁जोसेफ": 8057,
      "▁सेवानिवृत्त": 8058,
      "▁सिवाय": 8059,
      "श्ती": 8060,
      "▁किराए": 8061,
      ":श": 8062,
      "▁में;": 8063,
      "▁चउ": 8064,
      "▁आयाम": 8065,
      "▁नकली": 8066,
      "▁कनेक्शन": 8067,
      "▁आफ": 8068,
      "▁पाउ": 8069,
      "▁निष्पक्ष": 8070,
      "▁भिख": 8071,
      "ंचाई": 8072,
      "▁वैन": 8073,
      "▁गवाह": 8074,
      "▁गुला": 8075,
      "▁नौका": 8076,
      "फार": 8077,
      "▁ट्रैफिक": 8078,
      "▁गेला": 8079,
      "रेखा": 8080,
      "▁कायम": 8081,
      "ियंत्रित": 8082,
      "▁प्रतिदिन": 8083,
      "▁रजनी": 8084,
      "रे,": 8085,
      "▁कॉन": 8086,
      "रलैंड": 8087,
      "गैर": 8088,
      "▁कार्यकारी": 8089,
      "▁लिखी": 8090,
      "▁परामर्श": 8091,
      "▁प्रशांत": 8092,
      "▁केने": 8093,
      "स्थापक": 8094,
      "▁गर्भवती": 8095,
      "▁भासा": 8096,
      "▁डा.": 8097,
      "रेख": 8098,
      "▁मेयर": 8099,
      "▁हूँ?": 8100,
      "▁ऑल": 8101,
      "▁नइख": 8102,
      "▁जाओ,": 8103,
      "रियर": 8104,
      "शिया": 8105,
      "▁चिल": 8106,
      "▁सोझा": 8107,
      "▁रुपिया": 8108,
      "▁कइलन": 8109,
      "ुना": 8110,
      "▁जाहे": 8111,
      "▁संपूर्ण": 8112,
      "▁पाती": 8113,
      "▁नीले": 8114,
      "▁जज": 8115,
      "▁चावल": 8116,
      "▁क्विंट": 8117,
      "ओल": 8118,
      "▁जत": 8119,
      "▁फस": 8120,
      "▁दर्जा": 8121,
      "▁सदस्यता": 8122,
      "▁छात्र-छात्रा": 8123,
      "▁रायपुर": 8124,
      "▁माप": 8125,
      "▁योग्यता": 8126,
      "▁संस": 8127,
      "▁आवऽ": 8128,
      "सबुक": 8129,
      "▁धूमधाम": 8130,
      "▁त्रुट": 8131,
      "▁बियाह": 8132,
      "▁पंप": 8133,
      "▁राइ": 8134,
      "▁टि": 8135,
      "▁सोमार": 8136,
      "▁जरा": 8137,
      "▁महासचिव": 8138,
      "क्रम": 8139,
      "▁हाय": 8140,
      "▁नंद": 8141,
      "▁गरम": 8142,
      "▁डिब्बे": 8143,
      "▁\"ओह,": 8144,
      "वारा": 8145,
      "▁सुविधाओं": 8146,
      "▁पटाखे": 8147,
      "ट्रिक": 8148,
      "▁ज्वा": 8149,
      "▁नल": 8150,
      "▁जनप्रतिनि": 8151,
      "▁होता,": 8152,
      "▁नक्": 8153,
      "▁रखें,": 8154,
      "म्बे": 8155,
      "▁आरक्षण": 8156,
      "▁ऊंचाई": 8157,
      "▁दस्तावेज": 8158,
      "▁दस्त": 8159,
      "▁टोल": 8160,
      "दर्शी": 8161,
      "▁प्लास्टिक": 8162,
      "▁भंडार": 8163,
      "▁किला": 8164,
      "▁आयुष": 8165,
      "बड़ा": 8166,
      "▁तुलसी": 8167,
      "रेली": 8168,
      "▁समझता": 8169,
      "बाला": 8170,
      "▁गोला": 8171,
      "बला": 8172,
      "▁धरम": 8173,
      "▁तखन": 8174,
      "रेल": 8175,
      "▁चेयरमैन": 8176,
      "▁विक्रम": 8177,
      "पालन": 8178,
      "▁१५०": 8179,
      "▁लगा,": 8180,
      "▁कमाई": 8181,
      "▁संगठनों": 8182,
      "▁मेजर": 8183,
      "▁रूपों": 8184,
      "▁व्यावसाय": 8185,
      "▁२०१३": 8186,
      "▁हला": 8187,
      "▁लीं": 8188,
      "▁घृणा": 8189,
      "▁ताज": 8190,
      "▁घातक": 8191,
      "▁सारथी": 8192,
      "▁भाय": 8193,
      "द्दीन": 8194,
      "▁रचनात्मक": 8195,
      "▁हफ्": 8196,
      "▁ईमानदार": 8197,
      "▁गोप": 8198,
      "▁यूनिट": 8199,
      "▁साक्षात्कार": 8200,
      "डोर": 8201,
      "द्धांतिक": 8202,
      "▁शास्त्रीय": 8203,
      "▁जुनून": 8204,
      "्तु": 8205,
      "▁पढ़ें": 8206,
      "▁बॉक्स": 8207,
      "स्तू": 8208,
      "▁सिं": 8209,
      "▁चौड़ी": 8210,
      "▁विनय": 8211,
      "▁प्रवक्ता": 8212,
      "▁महात्मा": 8213,
      "▁महादेव": 8214,
      "▁कलाकारों": 8215,
      "▁ब्जप": 8216,
      "▁डेव": 8217,
      "▁तमाम": 8218,
      "▁४.": 8219,
      "▁उठी": 8220,
      "▁\"आपको": 8221,
      "▁जाऊँ": 8222,
      "▁उत्साहित": 8223,
      "▁भाग्यशाली": 8224,
      "▁जोशी": 8225,
      "▁मेटा": 8226,
      "▁शार": 8227,
      "▁फते": 8228,
      "▁जोध": 8229,
      "▁चार्ज": 8230,
      "▁संभा": 8231,
      "▁अनुचित": 8232,
      "▁अवार्ड": 8233,
      "▁स्नेह": 8234,
      "▁जौन": 8235,
      "▁समक्ष": 8236,
      "▁अनदे": 8237,
      "डेंट": 8238,
      "दिया": 8239,
      "क्सन": 8240,
      "▁सहयोगी": 8241,
      "▁आश्रम": 8242,
      "▁कामयाब": 8243,
      "▁स्वि": 8244,
      "िवारिक": 8245,
      "▁हथियारों": 8246,
      "कक्ष": 8247,
      "▁बहे": 8248,
      "▁सद्": 8249,
      "▁भाषाएँ": 8250,
      "▁उपाध्याय": 8251,
      "कस": 8252,
      "▁गवाही": 8253,
      "▁चूँकि": 8254,
      "▁झूल": 8255,
      "▁कैलाश": 8256,
      "३८": 8257,
      "▁मानी": 8258,
      "▁देहा": 8259,
      "▁मुफ्त": 8260,
      "▁बोध": 8261,
      "▁ब्लॉग": 8262,
      "▁औद्योगिक": 8263,
      "▁फॉर्म": 8264,
      "▁मजदूरी": 8265,
      "▁दस्तावे": 8266,
      "▁कटा": 8267,
      "▁निरीक्षक": 8268,
      "▁कराह": 8269,
      "माद": 8270,
      "▁जीता": 8271,
      "▁रोह": 8272,
      "▁कैमरे": 8273,
      "▁वक्ता": 8274,
      "▁पच्छिम": 8275,
      "▁कांच": 8276,
      "▁देखऽ": 8277,
      "ग्रा": 8278,
      "▁पाया।": 8279,
      "▁४७": 8280,
      "▁खेलते": 8281,
      "▁फेसबुक": 8282,
      "▁मूल्यवान": 8283,
      ":अ": 8284,
      "ैप": 8285,
      "▁मीटिंग": 8286,
      "▁बगीचे": 8287,
      "▁दिना": 8288,
      "ेंग": 8289,
      "▁सुसाइड": 8290,
      "▁\"व": 8291,
      "▁भला": 8292,
      "▁करावे": 8293,
      "▁प्रवी": 8294,
      "सा,": 8295,
      "फील्ड": 8296,
      "▁चालीस": 8297,
      "द्यपि": 8298,
      "▁ममता": 8299,
      "▁बुत": 8300,
      "▁भइ": 8301,
      "ंग,": 8302,
      "बाग": 8303,
      "▁मिलेगी।": 8304,
      "▁गहलो": 8305,
      "▁पक्का": 8306,
      "३२": 8307,
      "▁तस्क": 8308,
      "▁पाय": 8309,
      "▁ब्लड": 8310,
      "▁तत्कालीन": 8311,
      "▁प्लांट": 8312,
      "▁तहिना": 8313,
      "स्टीन": 8314,
      "▁अच": 8315,
      "▁कोठ": 8316,
      "▁रहन": 8317,
      "▁बूढ़ी": 8318,
      "▁परिकल्पना": 8319,
      "▁दिक्कत": 8320,
      "▁कतना": 8321,
      "▁कर्नल": 8322,
      "▁आक्रमण": 8323,
      "ँग": 8324,
      "▁बनना": 8325,
      "ेह": 8326,
      "▁पाता": 8327,
      "▁रजिस्ट्र": 8328,
      "छाड़": 8329,
      "▁शास्त्री": 8330,
      "गित": 8331,
      "▁सावधान": 8332,
      "▁पार्किंग": 8333,
      "▁करने,": 8334,
      "▁गायों": 8335,
      "▁भोजपुरिया": 8336,
      "▁सीखने": 8337,
      "▁राखल": 8338,
      "▁कही।": 8339,
      "▁हड्डी": 8340,
      "▁जीभ": 8341,
      "▁सोनिया": 8342,
      "▁फाइल": 8343,
      "ट्टर": 8344,
      "▁नरेश": 8345,
      "▁परिवर्तित": 8346,
      "▁मधुर": 8347,
      "फॉर्म": 8348,
      "▁आये": 8349,
      "▁वाश": 8350,
      "▁हिन्दु": 8351,
      "▁शर्तों": 8352,
      "▁मठ": 8353,
      "णु": 8354,
      "▁गों": 8355,
      "▁व्यावसायिक": 8356,
      "डब्ल्यू": 8357,
      "▁गाइड": 8358,
      "▁चोटी": 8359,
      "▁शिम": 8360,
      "▁जिम": 8361,
      "▁जिलाधिकारी": 8362,
      "▁संसाध": 8363,
      "▁२००८": 8364,
      "▁कॉफी": 8365,
      "▁महापर्व": 8366,
      "▁भरि": 8367,
      "▁स्टूडेंट्स": 8368,
      "▁चिट्ठी": 8369,
      "▁आलोक": 8370,
      "▁ओपन": 8371,
      "लोग": 8372,
      "▁रंजन": 8373,
      "▁चंडी": 8374,
      "▁प्रतिष्ठित": 8375,
      "दह": 8376,
      "▁त्वर": 8377,
      "▁कहा;": 8378,
      "▁मिलना": 8379,
      "▁विपक्ष": 8380,
      "▁जूनियर": 8381,
      "▁मैथिल": 8382,
      "कर्मियों": 8383,
      "स्तानी": 8384,
      "ख्त": 8385,
      "▁व्हा": 8386,
      "ते,": 8387,
      "ीकृत": 8388,
      "▁४२": 8389,
      "▁करंट": 8390,
      "▁बांग्लादेश": 8391,
      "▁रूट": 8392,
      "▁\"उ": 8393,
      "▁क्षेत्रफल": 8394,
      "▁मनावल": 8395,
      "▁फिल्मों": 8396,
      "▁२००९": 8397,
      "▁चौधरी,": 8398,
      "▁सगर": 8399,
      "▁इलेक्ट्रॉन": 8400,
      "▁नेपाली": 8401,
      "धीन": 8402,
      "३९": 8403,
      "▁खामो": 8404,
      "▁नेहर": 8405,
      "▁संयोग": 8406,
      "▁संतान": 8407,
      "▁महावीर": 8408,
      "▁अनियंत्रित": 8409,
      "▁रूपमे": 8410,
      "▁पिन": 8411,
      "▁हो?\"": 8412,
      "▁गयी।": 8413,
      "ंटे": 8414,
      "▁ग्य": 8415,
      "▁कीजिए": 8416,
      "▁लाई": 8417,
      "▁रही,": 8418,
      "निस": 8419,
      "▁गेले": 8420,
      "▁राजकुमारी": 8421,
      "▁श्रीराम": 8422,
      "पार": 8423,
      "▁लात": 8424,
      "▁मारिया": 8425,
      "▁कड़ा": 8426,
      "▁'स": 8427,
      "भावना": 8428,
      "▁हियाँ": 8429,
      "▁संध्या": 8430,
      "▁टॉप": 8431,
      "▁४९": 8432,
      "क्षणिक": 8433,
      "▁अतवार": 8434,
      "▁बाड़ी।": 8435,
      "जिया": 8436,
      "▁रास": 8437,
      "▁पारिवारिक": 8438,
      "▁भगा": 8439,
      "▁होता।": 8440,
      "▁भेल।": 8441,
      "▁चमकती": 8442,
      "▁संस्थाओं": 8443,
      "▁प्रचलित": 8444,
      "▁होंगे,": 8445,
      "नाइटेड": 8446,
      "▁बांस": 8447,
      "▁जेवना": 8448,
      "▁सौभाग्य": 8449,
      "▁मसा": 8450,
      "वावल": 8451,
      "लेशन": 8452,
      "ंगली": 8453,
      "ूनों": 8454,
      "६८": 8455,
      "ापुर": 8456,
      "▁अरस्तू": 8457,
      "▁धन्यवाद।": 8458,
      "▁लैंड": 8459,
      "▁कोर्स": 8460,
      "▁हल्का": 8461,
      "-इ": 8462,
      "▁ब्य": 8463,
      "▁मध्यप्रदेश": 8464,
      "ढ़ि": 8465,
      "▁बिछ": 8466,
      "▁प्राथमिकी": 8467,
      "▁शिशु": 8468,
      "▁बताया,": 8469,
      "मक": 8470,
      "िद": 8471,
      "▁स्टॉक": 8472,
      "एसआई": 8473,
      "▁बांह": 8474,
      "▁कसम": 8475,
      "▁टीचर": 8476,
      "▁एंड्र": 8477,
      "▁नमक": 8478,
      "ेलर": 8479,
      "▁प्रयाग": 8480,
      "▁नाह": 8481,
      "▁घी": 8482,
      "▁कटौती": 8483,
      "▁दलों": 8484,
      "▁जगहा": 8485,
      "▁ग्राहक": 8486,
      "बानी": 8487,
      "▁रहै": 8488,
      "ेश्व": 8489,
      "▁अर्पित": 8490,
      "रेंस": 8491,
      "शय": 8492,
      "▁अंस": 8493,
      "▁यद्यपि": 8494,
      "डीओ": 8495,
      "▁गजल": 8496,
      "▁एलिजा": 8497,
      "▁गरि": 8498,
      "▁छन": 8499,
      "▁देलकइ": 8500,
      "-समय": 8501,
      "▁बघ": 8502,
      "▁चहुँ": 8503,
      "ल्ली": 8504,
      "▁बेड": 8505,
      "▁२०००": 8506,
      "▁परियोजनाओं": 8507,
      "र्गत": 8508,
      "▁अवतार": 8509,
      "गाड़ी": 8510,
      "▁दिया;": 8511,
      "▁थॉमस": 8512,
      "▁नगरी": 8513,
      "▁फर्क": 8514,
      "▁कार्यकार": 8515,
      "▁सौदा": 8516,
      "▁बुरे": 8517,
      "▁दुआ": 8518,
      "▁कॉम": 8519,
      "▁चुनावी": 8520,
      "▁इम": 8521,
      "▁ही,": 8522,
      "▁रोहित": 8523,
      "बिनेट": 8524,
      "▁एग": 8525,
      "▁सुरू": 8526,
      "▁प्रो.": 8527,
      "▁परबत": 8528,
      "▁वास": 8529,
      "▁माके": 8530,
      "▁उपरो": 8531,
      "▁दीन": 8532,
      "▁उठाते": 8533,
      "▁जायजा": 8534,
      "▁वृद्ध": 8535,
      "▁मानसून": 8536,
      "-घर": 8537,
      "▁आतिश": 8538,
      "▁जवा": 8539,
      "▁चांद": 8540,
      "▁घटनास्थल": 8541,
      "▁बूढ़ा": 8542,
      "▁कम्पनी": 8543,
      "▁जुलूस": 8544,
      "▁बृ": 8545,
      "▁उपलब्धि": 8546,
      "▁छैक।": 8547,
      "▁बालू": 8548,
      "थन": 8549,
      "▁नकल": 8550,
      "▁क्षम": 8551,
      "▁झा,": 8552,
      "▁गर्भ": 8553,
      "▁लॉक": 8554,
      "ुनी": 8555,
      "▁सीज़न": 8556,
      "▁अलावे": 8557,
      "▁सिंचाई": 8558,
      "▁जितेंद्र": 8559,
      "▁मासूम": 8560,
      "▁कमिश्न": 8561,
      "फिया": 8562,
      "▁तें": 8563,
      "▁साइड": 8564,
      "टके": 8565,
      "▁निवासियों": 8566,
      "▁तृतीय": 8567,
      "▁काठ": 8568,
      "▁मांगे": 8569,
      "▁दिलाने": 8570,
      "▁मक्": 8571,
      "▁स्वीकृत": 8572,
      "▁मिस्र": 8573,
      "▁यथार्थ": 8574,
      "विन्द": 8575,
      "▁आशीष": 8576,
      "्योर": 8577,
      "स्का": 8578,
      "▁चुंब": 8579,
      "▁दर्शक": 8580,
      "▁बहि": 8581,
      "▁उठाकर": 8582,
      "▁केंद्रों": 8583,
      "▁रिश": 8584,
      "▁मण्ड": 8585,
      "▁ठाम": 8586,
      "▁योद्धा": 8587,
      "▁जमानत": 8588,
      "▁हान": 8589,
      "▁एक,": 8590,
      "घात": 8591,
      "▁फायरिंग": 8592,
      "▁बबुआ": 8593,
      "▁पिय": 8594,
      "लाइ": 8595,
      "ंची": 8596,
      "▁ब्रज": 8597,
      "▁कण": 8598,
      "्रामक": 8599,
      "▁मिथिलाक": 8600,
      "▁बरखा": 8601,
      "▁एरिक": 8602,
      "▁हैं-": 8603,
      "▁तिरस्कार": 8604,
      "त्रु": 8605,
      "स्टेबल": 8606,
      "खड़ा": 8607,
      "दायक": 8608,
      "र्भ": 8609,
      "▁मोट": 8610,
      "▁डूबने": 8611,
      "▁असामान्य": 8612,
      "ोलिक": 8613,
      "▁पुकार": 8614,
      "▁चरचा": 8615,
      "▁आन्द": 8616,
      "▁शिल्": 8617,
      "▁कैन": 8618,
      "▁मिश्रण": 8619,
      "क्व": 8620,
      "▁पहाड़ों": 8621,
      "ानुपात": 8622,
      "▁कथित": 8623,
      "बी,": 8624,
      "-अभी": 8625,
      "▁धीमी": 8626,
      "▁प्रहार": 8627,
      "गह": 8628,
      "▁करेला": 8629,
      "▁सर्वा": 8630,
      "▁झुंड": 8631,
      "ौना": 8632,
      "▁रिव": 8633,
      "▁भ्रमण": 8634,
      "▁जाट": 8635,
      "▁विनम्रता": 8636,
      "▁तस्करी": 8637,
      "ेला": 8638,
      "▁आर्य": 8639,
      "ोंक": 8640,
      "▁ड्रा": 8641,
      "▁स्टीव": 8642,
      "▁लिंगानुपात": 8643,
      "णिक": 8644,
      "ान,": 8645,
      "▁थका": 8646,
      "▁प्रतिद्व": 8647,
      "▁उपरोक्त": 8648,
      "▁प्रतिष्ठा": 8649,
      "▁वसंत": 8650,
      "परि": 8651,
      "▁ऑर्डर": 8652,
      "▁भरपूर": 8653,
      "▁विशिष्टता": 8654,
      "▁भैया": 8655,
      "▁समझौते": 8656,
      "▁समृद्धि": 8657,
      "मंद": 8658,
      "ाये": 8659,
      "▁देवताओं": 8660,
      "▁भइला": 8661,
      "▁कथन": 8662,
      "्यात्मक": 8663,
      "▁ऊँच": 8664,
      "▁स्पर्श": 8665,
      "▁संरक्षक": 8666,
      "४९": 8667,
      "▁मोम": 8668,
      "▁पाँ": 8669,
      "▁खिड़क": 8670,
      "माना": 8671,
      "लिया": 8672,
      "▁राजू": 8673,
      "▁सलाहकार": 8674,
      "र्टी": 8675,
      "४६": 8676,
      "ड़ि": 8677,
      "▁प्रतिस्पर्धा": 8678,
      "▁प्रभा": 8679,
      "्तर": 8680,
      "▁जाला,": 8681,
      "▁विरा": 8682,
      "ष्णा": 8683,
      "▁आतिशबाजी": 8684,
      "तारी": 8685,
      "▁भइया": 8686,
      "▁धरा": 8687,
      "▁बूझ": 8688,
      "▁इंगित": 8689,
      "▁फ्लोर": 8690,
      "▁कमान": 8691,
      "▁रहेंगे": 8692,
      "▁किया;": 8693,
      "▁द्विवेदी": 8694,
      "▁जइत": 8695,
      "ख्यात": 8696,
      "▁डालते": 8697,
      "▁लमहर": 8698,
      "▁गिलास": 8699,
      "▁चारो": 8700,
      "▁पंचायतों": 8701,
      "▁बूथ": 8702,
      "▁अफसरों": 8703,
      "▁ग्वालियर": 8704,
      "▁घर,": 8705,
      "▁वर्गीकरण": 8706,
      "▁जीने": 8707,
      "▁शैक्षणिक": 8708,
      "▁लिए;": 8709,
      "▁संक्षेप": 8710,
      "▁बनाती": 8711,
      "-ध": 8712,
      "धेश": 8713,
      "५५": 8714,
      "▁नज़": 8715,
      "▁त्रिपाठी": 8716,
      "▁पायलट": 8717,
      "▁==": 8718,
      "प्पा": 8719,
      "▁कतार": 8720,
      "▁कोटा": 8721,
      "▁मनोहर": 8722,
      "▁उदासीन": 8723,
      "भारी": 8724,
      "▁अंतराल": 8725,
      "▁एक्के": 8726,
      "-निर्": 8727,
      "डकर": 8728,
      "▁प्रता": 8729,
      "जब": 8730,
      "ौरा": 8731,
      "▁लहरा": 8732,
      "▁तंग": 8733,
      "▁त्वरित": 8734,
      "▁केहु": 8735,
      "▁नजरअ": 8736,
      "▁मुहूर्त": 8737,
      "▁\"मेरे": 8738,
      "▁जोधपुर": 8739,
      "▁खाल": 8740,
      "▁घुम": 8741,
      "▁मुआवजा": 8742,
      "▁भया": 8743,
      "▁'प": 8744,
      "▁नींव": 8745,
      "▁रेश": 8746,
      "▁गप": 8747,
      "▁फाल": 8748,
      "▁ढांचे": 8749,
      "▁सुशील": 8750,
      "▁रुख": 8751,
      "▁ली,": 8752,
      "▁अहमद": 8753,
      "▁हू": 8754,
      "▁फंस": 8755,
      "▁पी।": 8756,
      "▁हिंसक": 8757,
      "▁बतिया": 8758,
      "▁फिलिप": 8759,
      "▁महासागर": 8760,
      "▁फंड": 8761,
      "▁डीसी": 8762,
      "▁राति": 8763,
      "▁घंटी": 8764,
      "▁जनजाति": 8765,
      "▁रतन": 8766,
      "▁गो॰": 8767,
      "▁रखती": 8768,
      "▁आक्रोश": 8769,
      "▁खैर": 8770,
      "▁गुलाम": 8771,
      "▁सर्दी": 8772,
      "▁नजरअंदाज": 8773,
      "चंद्र": 8774,
      "सूरत": 8775,
      "▁जो,": 8776,
      "▁२0": 8777,
      "▁तइयार": 8778,
      "है": 8779,
      "▁झोप": 8780,
      "▁स्कॉ": 8781,
      "की,": 8782,
      "च्छिक": 8783,
      "▁सजाव": 8784,
      "ड़ल": 8785,
      "िलाई": 8786,
      "किम": 8787,
      "▁झुल": 8788,
      "▁इंटरनेशनल": 8789,
      "▁क्षतिग्रस्त": 8790,
      "णित": 8791,
      "स्पद": 8792,
      "-का": 8793,
      "▁ना?": 8794,
      "जत": 8795,
      "▁बेहत": 8796,
      "▁शौचाल": 8797,
      "▁पहिलहीं": 8798,
      "▁यार": 8799,
      "▁सुतो": 8800,
      "▁गोवंश": 8801,
      "▁छेल": 8802,
      "▁नाजुक": 8803,
      "▁मदर": 8804,
      "▁पॉप": 8805,
      "▁मानवीय": 8806,
      "ोही": 8807,
      "▁बँ": 8808,
      "▁लेले": 8809,
      "▁उत्पी": 8810,
      "ंदर्य": 8811,
      "▁व्यंग": 8812,
      "▁करेगा,": 8813,
      "▁पांडेय": 8814,
      "-को": 8815,
      "डेल": 8816,
      "▁हमसे": 8817,
      "ञ्चल": 8818,
      "▁ग्ले": 8819,
      "▁कांट": 8820,
      "▁मैनेजर": 8821,
      "गिन": 8822,
      "▁जताई": 8823,
      "▁इन्": 8824,
      "▁बालिका": 8825,
      "▁कैंसर": 8826,
      "▁दने": 8827,
      "▁लोर": 8828,
      "▁संसाधनों": 8829,
      "▁एंब": 8830,
      "▁पोंछ": 8831,
      "▁कवर": 8832,
      "नाई": 8833,
      "▁वेद": 8834,
      "▁स्टोर": 8835,
      "▁गाउँपालिका": 8836,
      "▁ठंडी": 8837,
      "▁पैग": 8838,
      "▁}": 8839,
      "कांड": 8840,
      "▁मोटा": 8841,
      "!!": 8842,
      "▁समस्याएं": 8843,
      "▁स्क्र": 8844,
      "िनल": 8845,
      "▁राज्यसभा": 8846,
      "लिटी": 8847,
      "▁अर्ध": 8848,
      "द्वी": 8849,
      "भन": 8850,
      "िए,": 8851,
      "▁पुण्य": 8852,
      "▁निशाना": 8853,
      "▁हिस": 8854,
      "▁मज़": 8855,
      "▁दूंगा।": 8856,
      "▁ब्रेक": 8857,
      "▁अब्दुल": 8858,
      "▁नशा": 8859,
      "-मु": 8860,
      "▁वीं": 8861,
      "▁निकलते": 8862,
      "▁घोड़ों": 8863,
      "ेरे": 8864,
      "गाई": 8865,
      "▁जुटा": 8866,
      "▁ड्रे": 8867,
      "▁सॉफ्ट": 8868,
      "▁देखत": 8869,
      "▁दूत": 8870,
      "▁शिक्षण": 8871,
      "▁अपमानजनक": 8872,
      "▁हीन": 8873,
      "▁तोहर": 8874,
      "▁दुबे": 8875,
      "▁कैबिनेट": 8876,
      "▁असंगत": 8877,
      "▁विद्यालयों": 8878,
      "टिन": 8879,
      "▁हेर": 8880,
      "▁संपादक": 8881,
      "तीन": 8882,
      "▁रहें।": 8883,
      "इंग": 8884,
      "▁गाछ": 8885,
      "▁झटका": 8886,
      "▁गुन": 8887,
      "▁गहलोत": 8888,
      "▁तेरा": 8889,
      "▁कइला": 8890,
      "▁भौंह": 8891,
      "▁हिलाया।": 8892,
      "▁समाय": 8893,
      "▁ओड": 8894,
      "्योंकि": 8895,
      "▁आस-प": 8896,
      "-बे": 8897,
      "▁ठहर": 8898,
      "▁अभी-अभी": 8899,
      "▁मॉड": 8900,
      "म्बई": 8901,
      "▁प्रशिक्षित": 8902,
      "▁प्रसारित": 8903,
      "एँ।": 8904,
      "▁इंदिरा": 8905,
      "▁इमर": 8906,
      "▁अनुभवजन्य": 8907,
      "▁आन्दोलन": 8908,
      "इते": 8909,
      "▁तरे": 8910,
      "▁पीला": 8911,
      "▁एहन": 8912,
      "▁एलिजाबेथ": 8913,
      "रथ": 8914,
      "ुलर": 8915,
      "▁बेग": 8916,
      "▁न्यायिक": 8917,
      "▁गुजरने": 8918,
      "▁उठे": 8919,
      "▁क्वांट": 8920,
      "्तिक": 8921,
      "▁प्रणालियों": 8922,
      "▁कसो": 8923,
      "▁पला": 8924,
      "▁आइस": 8925,
      "▁जेवन": 8926,
      "▁प्रिंसिपल": 8927,
      "||": 8928,
      "▁चम्म": 8929,
      "▁कपूर": 8930,
      "मोहन": 8931,
      "▁सार्थ": 8932,
      "▁सतीश": 8933,
      "▁तं": 8934,
      "▁ताजा": 8935,
      "्ली": 8936,
      "▁भाल": 8937,
      "▁मूल्यों": 8938,
      "बोर्ड": 8939,
      "▁००": 8940,
      "▁सुरुआ": 8941,
      "▁उमिर": 8942,
      "▁खरीदा": 8943,
      "▁रिजर्व": 8944,
      "▁क्विंटल": 8945,
      "-सी": 8946,
      "▁चमत्कार": 8947,
      "▁बिल्डिंग": 8948,
      "▁राणा": 8949,
      "▁खाए": 8950,
      "▁इंट": 8951,
      "▁अनुदान": 8952,
      "▁भेजी": 8953,
      "▁ग्राहकों": 8954,
      "-घ": 8955,
      "▁पख": 8956,
      "▁तेरी": 8957,
      "मि॰": 8958,
      "▁शुभकामना": 8959,
      "वर्ष": 8960,
      "ैक्ट": 8961,
      "ार्टर": 8962,
      "▁चन्द": 8963,
      "▁लिमि": 8964,
      "▁गर्मियों": 8965,
      "▁मेरठ": 8966,
      "ानी,": 8967,
      "▁बाड़ें।": 8968,
      "▁नम्बर": 8969,
      "श्वसनीय": 8970,
      "▁इनकर": 8971,
      "प्पल": 8972,
      "▁मिलाकर": 8973,
      "▁टेरे": 8974,
      "▁टाउन": 8975,
      "▁आश्चर्यजनक": 8976,
      "▁लांसः": 8977,
      "▁डोर": 8978,
      "पं": 8979,
      "▁पारी": 8980,
      "▁आके": 8981,
      "स्टेंट": 8982,
      "▁सच्चे": 8983,
      "▁पद्ध": 8984,
      "डी,": 8985,
      "▁सचेत": 8986,
      "ल्लू": 8987,
      "▁समकालीन": 8988,
      "▁\"च": 8989,
      "▁माथा": 8990,
      "▁पूछे": 8991,
      "दूत": 8992,
      "▁पृष्ठभूमि": 8993,
      "▁अंडे": 8994,
      "▁श्रा": 8995,
      "▁बनारस": 8996,
      "▁सारथी॰": 8997,
      "▁साहि": 8998,
      "▁ध्रु": 8999,
      "▁अभियंता": 9000,
      "▁आचरण": 9001,
      "▁माथ": 9002,
      "्रम्प": 9003,
      "▁ताक": 9004,
      "▁कसोमि॰": 9005,
      "मै": 9006,
      "▁खट": 9007,
      "्दी": 9008,
      "ूल्य": 9009,
      "▁सफर": 9010,
      "▁पुरोहित": 9011,
      "ूण": 9012,
      "▁हता": 9013,
      "▁एने": 9014,
      "▁देखती": 9015,
      "▁शुक्": 9016,
      "▁जीवंत": 9017,
      "-१९": 9018,
      "▁दुखद": 9019,
      "▁गारंटी": 9020,
      "▁दय": 9021,
      "▁कलक": 9022,
      "▁लइक": 9023,
      "▁उछल": 9024,
      "▁बच्च": 9025,
      "▁वैसा": 9026,
      "▁बहाने": 9027,
      "ुणा": 9028,
      "▁सीरीज": 9029,
      "▁रखकर": 9030,
      "▁एंबुलेंस": 9031,
      "▁जीतने": 9032,
      "▁भ्रमित": 9033,
      "ीर": 9034,
      "▁सर्क": 9035,
      "▁बिशप": 9036,
      "-५": 9037,
      "▁वफा": 9038,
      "▁फाउंड": 9039,
      "▁बौद्धिक": 9040,
      "▁सिंध": 9041,
      "भोग": 9042,
      "▁चलना": 9043,
      "स्कूल": 9044,
      "▁लगलइ": 9045,
      "▁उह": 9046,
      "▁१८८": 9047,
      "▁तेरह": 9048,
      "▁कैश": 9049,
      "▁पुत्री": 9050,
      "▁ताहि": 9051,
      "▁डबल": 9052,
      "▁मुट्ठी": 9053,
      "▁सैल": 9054,
      "▁इच्छुक": 9055,
      "▁चंडीगढ़": 9056,
      "▁अवर": 9057,
      "▁सेमी": 9058,
      "गेड": 9059,
      "▁४००": 9060,
      "▁इरादे": 9061,
      "▁अभिनेत्री": 9062,
      "▁\"उन्होंने": 9063,
      "▁कुत्ता": 9064,
      "▁ढाल": 9065,
      "▁प्रभावशाली": 9066,
      "▁प्रोत्साहन": 9067,
      "रिय": 9068,
      "▁स्मारक": 9069,
      "▁सत्": 9070,
      "▁हुस": 9071,
      "▁बेशक,": 9072,
      "▁संतुलन": 9073,
      "▁लिमिटेड": 9074,
      "▁देखो,": 9075,
      "▁पुष्प": 9076,
      "▁गवर्नर": 9077,
      "जिन": 9078,
      "▁उपयोगिता": 9079,
      "▁असफल": 9080,
      "▁नारेबाजी": 9081,
      "▁करना।": 9082,
      "▁कैलेंडर": 9083,
      "▁अजनबी": 9084,
      "▁मतदाता": 9085,
      "▁उपेक्षा": 9086,
      "▁सेवाएं": 9087,
      "ियां,": 9088,
      "▁तिलक": 9089,
      "▁भिखारी": 9090,
      "**": 9091,
      "नात्मक": 9092,
      "राक": 9093,
      "ोगे": 9094,
      "▁बढ़कर": 9095,
      "▁होएत": 9096,
      "▁इस्तीफा": 9097,
      "बनी": 9098,
      "▁संस्थापक": 9099,
      "टाइ": 9100,
      "▁अनुपात": 9101,
      "▁'मुझे": 9102,
      "▁यूक": 9103,
      "सेवी": 9104,
      "▁उत्तराखंड": 9105,
      "क्टे": 9106,
      "र्मन": 9107,
      "▁संजीव": 9108,
      "▁बहनों": 9109,
      "र्निया": 9110,
      "▁इनाम": 9111,
      "वनि": 9112,
      "▁पहिचान": 9113,
      "▁विदाई": 9114,
      "▁ट्रॉ": 9115,
      "▁यूनाइटेड": 9116,
      "▁चिल्लाया।": 9117,
      "▁ग्राउंड": 9118,
      "सक": 9119,
      "▁गुट": 9120,
      "▁स्कू": 9121,
      "▁ऑफ़": 9122,
      "▁प्रवीण": 9123,
      "▁भिक्ष": 9124,
      "साई": 9125,
      "▁कार्ल": 9126,
      "▁गिरि": 9127,
      "हूर": 9128,
      "किट": 9129,
      "॰मी": 9130,
      "▁अपरि": 9131,
      "ञ्च": 9132,
      "▁भक्तों": 9133,
      "्शा": 9134,
      "सल,": 9135,
      "▁घब": 9136,
      "िमंडल": 9137,
      "▁कॉपी": 9138,
      "▁बचत": 9139,
      "▁सकेंगे।": 9140,
      "▁महामंत्री": 9141,
      "▁कृति": 9142,
      "▁दुःख": 9143,
      "▁एंग": 9144,
      "▁कहा\",": 9145,
      "▁सभक": 9146,
      "सिं": 9147,
      "▁अंकित": 9148,
      "▁काउंटर": 9149,
      "▁जाली": 9150,
      "विजन": 9151,
      "▁सैनी": 9152,
      "▁त्यौ": 9153,
      "▁क्रि": 9154,
      "▁कुलदीप": 9155,
      "▁परभाव": 9156,
      "▁शत्रु": 9157,
      "▁लिप": 9158,
      "▁बिना,": 9159,
      "▁संक्रमित": 9160,
      "▁नौसेना": 9161,
      "इसे": 9162,
      "काँ": 9163,
      "▁कैरो": 9164,
      "ियमित": 9165,
      "▁तलाशी": 9166,
      "कार्प": 9167,
      "▁ओहे": 9168,
      "▁दूनो": 9169,
      "एससी": 9170,
      "▁पकड़कर": 9171,
      "▁बाबूजी": 9172,
      "▁सुप्रीम": 9173,
      "॰मी॰": 9174,
      "सला": 9175,
      "▁फ्रेड": 9176,
      "▁छुआ": 9177,
      "▁ठगी": 9178,
      "र्ष्या": 9179,
      "६५": 9180,
      "ुश": 9181,
      "▁किले": 9182,
      "▁स्क्वा": 9183,
      "▁अविश्वसनीय": 9184,
      "नामा": 9185,
      "▁प्राप्ति": 9186,
      "िरोध": 9187,
      "▁अनुबंध": 9188,
      "▁फाड़": 9189,
      "▁संवै": 9190,
      "▁मिला,": 9191,
      "▁बुखार": 9192,
      "डू": 9193,
      "▁गन": 9194,
      "ंख्य": 9195,
      "▁नजदीक": 9196,
      "▁खामोशी": 9197,
      "▁कालेज": 9198,
      "शान": 9199,
      "▁उंगली": 9200,
      "▁अश्लील": 9201,
      "▁बिय": 9202,
      "▁भारतीयों": 9203,
      "▁जदयू": 9204,
      "्रल": 9205,
      "▁गोबर": 9206,
      "▁उठल": 9207,
      "▁धोखाध": 9208,
      "▁सैद्धांतिक": 9209,
      "राहट": 9210,
      "▁चतुर": 9211,
      "▁इका": 9212,
      "▁पांड": 9213,
      "▁ट्रम्प": 9214,
      "▁मिलत": 9215,
      "▁पक्षियों": 9216,
      "▁आझ": 9217,
      "▁एक्टिंग": 9218,
      "▁खज": 9219,
      "▁अबहीं": 9220,
      "▁आकस्म": 9221,
      "▁वसूली": 9222,
      "▁कियो": 9223,
      "▁शह": 9224,
      "▁संज्ञ": 9225,
      "▁अनुभवों": 9226,
      "▁प्रतिनिधियों": 9227,
      "▁धर्": 9228,
      "▁भयावह": 9229,
      "▁यंत्र": 9230,
      ":स": 9231,
      "▁उपर": 9232,
      "▁मजिस्ट": 9233,
      "▁शक्तियों": 9234,
      "बली": 9235,
      "▁रकम": 9236,
      "▁था--": 9237,
      "परक": 9238,
      "▁तोड़ने": 9239,
      "टेक": 9240,
      "▁बदतर": 9241,
      "▁शुरूआत": 9242,
      "▁ई,": 9243,
      "▁लगावे": 9244,
      "▁गुहार": 9245,
      "▁प्रतिद्वंद": 9246,
      "▁अा": 9247,
      "▁व्याकरण": 9248,
      "▁बैठकर": 9249,
      "▁$": 9250,
      "पुट": 9251,
      "▁20": 9252,
      "▁पैटर्न": 9253,
      "निज": 9254,
      "▁५७": 9255,
      "▁इंतजाम": 9256,
      "भेद": 9257,
      "▁केक": 9258,
      "▁कि॰मी॰": 9259,
      "▁सर्दियों": 9260,
      "३१": 9261,
      "▁उमेश": 9262,
      "▁किशोरी": 9263,
      "▁दूसर": 9264,
      "दाश्त": 9265,
      "▁चेन": 9266,
      "▁जूल": 9267,
      "▁लक्ष्मण": 9268,
      "-मा": 9269,
      "▁चीख": 9270,
      "▁लोकनि": 9271,
      "▁बं": 9272,
      "▁धुन": 9273,
      "ँक": 9274,
      "जिस": 9275,
      "▁ब्रांड": 9276,
      "▁कुलीन": 9277,
      "▁मौत,": 9278,
      "▁हाईकोर्ट": 9279,
      "▁उतरने": 9280,
      "▁चाँद": 9281,
      "▁परिश": 9282,
      "▁गुजरते": 9283,
      "▁नेहरू": 9284,
      "पेश": 9285,
      "▁एसी": 9286,
      "ार्थियों": 9287,
      "ियाें": 9288,
      "▁जिंदा": 9289,
      "▁विडियो:": 9290,
      "▁त्यौहार": 9291,
      "ैनी": 9292,
      "▁\"य": 9293,
      "▁ईर्ष्या": 9294,
      "▁फसलों": 9295,
      "ंत्रण": 9296,
      "▁पैन": 9297,
      "▁सके,": 9298,
      "▁एल्बम": 9299,
      "▁बेरा": 9300,
      "▁दीर्": 9301,
      "▁अमरीका": 9302,
      "ड़ित": 9303,
      "▁निकलल": 9304,
      "▁चिकित्सकों": 9305,
      "▁कैलि": 9306,
      "िकोव": 9307,
      "▁गणितीय": 9308,
      "▁५८": 9309,
      "▁तोड़कर": 9310,
      "▁चिरई": 9311,
      "▁गाड़ियों": 9312,
      "▁चौंका": 9313,
      "▁जरुरत": 9314,
      "▁सेवन": 9315,
      "▁व्यंजन": 9316,
      "▁महादीप": 9317,
      "▁सर्विस": 9318,
      "इए": 9319,
      "▁जिन्दा": 9320,
      "▁टीमें": 9321,
      "▁बिस्तार": 9322,
      "▁करो।": 9323,
      "▁चारा": 9324,
      "▁द्वारा,": 9325,
      "▁बैनर": 9326,
      "▁अभियुक्त": 9327,
      "▁संवैधानिक": 9328,
      "▁कुलपति": 9329,
      "रेटर": 9330,
      "फ़ी": 9331,
      "▁ख्या": 9332,
      "▁विक्रे": 9333,
      "▁मिश्रित": 9334,
      "▁स्वे": 9335,
      "▁देशी": 9336,
      "▁दिलीप": 9337,
      "▁प्राणियों": 9338,
      "▁सुरेंद्र": 9339,
      "▁८५": 9340,
      "▁प्रतिभाग": 9341,
      "▁२००७": 9342,
      "षक": 9343,
      "ह।": 9344,
      "िवर्त": 9345,
      "▁सिफार": 9346,
      "▁उदयपुर": 9347,
      "▁पावे": 9348,
      "▁संतुष्टि": 9349,
      "▁एडवर्ड": 9350,
      "▁शिमला": 9351,
      "हुआ": 9352,
      "▁बक्सर": 9353,
      "▁परिदृश्य": 9354,
      "▁हों,": 9355,
      "▁बया": 9356,
      "▁बाईं": 9357,
      "च्छेद": 9358,
      "▁पेयजल": 9359,
      "▁विधाय": 9360,
      "▁स्वादिष्ट": 9361,
      "▁भंग": 9362,
      "▁उपाधि": 9363,
      "▁भेदभाव": 9364,
      "डॉ": 9365,
      "ज़,": 9366,
      "▁गड़बड़ी": 9367,
      "ंक्शन": 9368,
      "▁गोविंद": 9369,
      "▁किताबें": 9370,
      "हा,": 9371,
      "▁फेन": 9372,
      "▁पेंटिंग": 9373,
      "▁समझना": 9374,
      "▁अफवाह": 9375,
      "फलता": 9376,
      "धीर": 9377,
      "▁जिलाक": 9378,
      "डीह": 9379,
      "▁मिड": 9380,
      "▁पैक": 9381,
      "▁डाली": 9382,
      "▁पसी": 9383,
      "▁भित": 9384,
      "▁विशेषा": 9385,
      "ैतिक": 9386,
      "▁चौथे": 9387,
      "▁कइलकइ": 9388,
      "▁गोदाम": 9389,
      "▁बंस": 9390,
      "▁उच्चतम": 9391,
      "▁शिष्ट": 9392,
      "हालय": 9393,
      "▁अप्रत्या": 9394,
      "▁गठबंधन": 9395,
      "▁विल्": 9396,
      "▁अद्व": 9397,
      "▁दफना": 9398,
      "चिन": 9399,
      "▁मांगा": 9400,
      "▁ब्रिगेड": 9401,
      "▁रस्सी": 9402,
      "▁कोषा": 9403,
      "▁छी,": 9404,
      "▁सीमाओं": 9405,
      "नम": 9406,
      "▁हें": 9407,
      "िएटर": 9408,
      "▁अनुसूचित": 9409,
      "णीय": 9410,
      "▁इंडियन": 9411,
      "▁शासक": 9412,
      "ौड़": 9413,
      "▁अतः": 9414,
      "▁टेबल": 9415,
      "ूंगा,": 9416,
      "▁तुरी": 9417,
      "▁सार्थक": 9418,
      "▁एटी": 9419,
      "लीफ": 9420,
      "▁अन्ना": 9421,
      "▁सीधी": 9422,
      "▁दुसरे": 9423,
      "▁वैचारिक": 9424,
      "आईआर": 9425,
      "▁दिहलन": 9426,
      "ढा": 9427,
      "▁किल": 9428,
      "▁विधवा": 9429,
      "▁एश्टनः": 9430,
      "-ओ": 9431,
      "क्चर": 9432,
      "▁अनुकरण": 9433,
      "▁नीरज": 9434,
      "▁पड़त": 9435,
      "▁अंतर्ज्ञान": 9436,
      "▁इको": 9437,
      "▁स्कूली": 9438,
      "▁सौंदर्य": 9439,
      "▁पदार्थों": 9440,
      "४२": 9441,
      "▁अनुप्र": 9442,
      "▁आवागमन": 9443,
      "ैग": 9444,
      "▁आखिरकार,": 9445,
      "▁श्व": 9446,
      "▁अनो": 9447,
      "▁छल,": 9448,
      "▁उत्तम": 9449,
      "▁स्टोन": 9450,
      "मंच": 9451,
      "ड़स": 9452,
      "▁सीने": 9453,
      "▁दीदी": 9454,
      "▁रिसर्च": 9455,
      "▁अप्रत्याशित": 9456,
      "▁वगैर": 9457,
      "▁म्यूजिक": 9458,
      "▁२००६": 9459,
      "▁विनती": 9460,
      "▁शरद": 9461,
      "चित्य": 9462,
      "▁साँस": 9463,
      "रानी": 9464,
      "▁सुल्": 9465,
      "गर,": 9466,
      "▁धड़क": 9467,
      "▁मारकर": 9468,
      "र्स,": 9469,
      "ोत्तम": 9470,
      "▁अल्लाह": 9471,
      "▁जाहल": 9472,
      "त्रिम": 9473,
      "▁वांछ": 9474,
      "▁सुविधाएं": 9475,
      "▁दर्दनाक": 9476,
      "▁तुम्हें": 9477,
      "धियों": 9478,
      "▁मय": 9479,
      "▁हिच": 9480,
      "▁चरणों": 9481,
      "▁आस-पास": 9482,
      "▁बकरी": 9483,
      "▁परंतु": 9484,
      "ताराम": 9485,
      "ेंटा": 9486,
      "▁इज": 9487,
      "▁विद्व": 9488,
      "▁दूसरा,": 9489,
      "▁लेवल": 9490,
      "पूत": 9491,
      "▁डेर": 9492,
      "▁आर्थर": 9493,
      "▁मनोवैज्ञानिक": 9494,
      "रिस": 9495,
      "▁ग्लो": 9496,
      "▁सोनू": 9497,
      "-पश्च": 9498,
      "▁गिना": 9499,
      "▁सिवान": 9500,
      "▁बिली": 9501,
      "▁रामपुर": 9502,
      "▁आयुर्वे": 9503,
      "▁बढ़ल": 9504,
      "▁ढी": 9505,
      "▁सड़कें": 9506,
      "▁लाइफ": 9507,
      "▁उत्तराधिकारी": 9508,
      "▁नर्सिंग": 9509,
      "▁कष्ट": 9510,
      "▁टु": 9511,
      "▁पीले": 9512,
      "▁ट्रेनों": 9513,
      "▁बसा": 9514,
      "▁बढ़त": 9515,
      "▁घोटाला": 9516,
      "▁उनुकर": 9517,
      "आँ": 9518,
      "▁कर्ट": 9519,
      "▁ओत": 9520,
      "▁सभ्य": 9521,
      "▁अमूर्त": 9522,
      "श्वत": 9523,
      "▁किताबों": 9524,
      "▁एहिजा": 9525,
      "गुप्त": 9526,
      "▁धनुष": 9527,
      "▁दुकानदारों": 9528,
      "▁मकसद": 9529,
      "▁चित्रण": 9530,
      "▁राखे": 9531,
      "▁'यह": 9532,
      "▁ब्रिज": 9533,
      "▁गाँवपालिका": 9534,
      "▁आओ,": 9535,
      "▁लागी": 9536,
      "▁होखे।": 9537,
      "▁समन्वय": 9538,
      "▁चम्मच": 9539,
      "▁सऽ": 9540,
      "▁बिज्ञान": 9541,
      "▁सख्ती": 9542,
      "▁एशियाई": 9543,
      "▁प्रतिबंधित": 9544,
      "▁सिफारिश": 9545,
      "▁लेवे": 9546,
      "▁वाटर": 9547,
      "▁चुक": 9548,
      "९५": 9549,
      "▁सावन": 9550,
      "▁भाप": 9551,
      "▁तैयारियां": 9552,
      "▁ब्लू": 9553,
      "▁फ़ोन": 9554,
      "▁मशहूर": 9555,
      "▁\"हाँ,": 9556,
      "बुक": 9557,
      "▁यहीं": 9558,
      "▁चाहें": 9559,
      "▁यूनानी": 9560,
      "▁संसदीय": 9561,
      "▁देला": 9562,
      "▁हैं।\"": 9563,
      "▁नीला": 9564,
      "त्वना": 9565,
      "▁ढोल": 9566,
      "िंदा": 9567,
      "▁खों": 9568,
      "▁ओके": 9569,
      "▁संगत": 9570,
      "▁थे?": 9571,
      "एसटी": 9572,
      "▁मसक": 9573,
      "▁वय": 9574,
      "▁रैंक": 9575,
      "▁जी-२०": 9576,
      "िप्ट": 9577,
      "जल्ट": 9578,
      "बैक": 9579,
      "▁पोस्टर": 9580,
      "▁कार्तिक": 9581,
      "▁निर्व": 9582,
      "▁विभागीय": 9583,
      "▁शासकीय": 9584,
      "प्री": 9585,
      "▁क'": 9586,
      "▁विक्ट": 9587,
[...]
